{
  "version": "1.0",
  "truncation": null,
  "padding": null,
  "added_tokens": [
    {
      "id": 0,
      "content": "<s>",
      "single_word": false,
      "lstrip": false,
      "rstrip": false,
      "normalized": false,
      "special": true
    },
    {
      "id": 1,
      "content": "</s>",
      "single_word": false,
      "lstrip": false,
      "rstrip": false,
      "normalized": false,
      "special": true
    },
    {
      "id": 2,
      "content": "<pad>",
      "single_word": false,
      "lstrip": false,
      "rstrip": false,
      "normalized": false,
      "special": true
    },
    {
      "id": 3,
      "content": "<unk>",
      "single_word": false,
      "lstrip": false,
      "rstrip": false,
      "normalized": false,
      "special": true
    }
  ],
  "normalizer": null,
  "pre_tokenizer": {
    "type": "ByteLevel",
    "add_prefix_space": false,
    "trim_offsets": true,
    "use_regex": true
  },
  "post_processor": {
    "type": "ByteLevel",
    "add_prefix_space": true,
    "trim_offsets": false,
    "use_regex": true
  },
  "decoder": {
    "type": "ByteLevel",
    "add_prefix_space": true,
    "trim_offsets": true,
    "use_regex": true
  },
  "model": {
    "type": "BPE",
    "dropout": null,
    "unk_token": null,
    "continuing_subword_prefix": null,
    "end_of_word_suffix": null,
    "fuse_unk": false,
    "byte_fallback": false,
    "ignore_merges": false,
    "vocab": {
      "<s>": 0,
      "</s>": 1,
      "<pad>": 2,
      "<unk>": 3,
      "!": 4,
      "\"": 5,
      "#": 6,
      "$": 7,
      "%": 8,
      "&": 9,
      "'": 10,
      "(": 11,
      ")": 12,
      "*": 13,
      "+": 14,
      ",": 15,
      "-": 16,
      ".": 17,
      "/": 18,
      "0": 19,
      "1": 20,
      "2": 21,
      "3": 22,
      "4": 23,
      "5": 24,
      "6": 25,
      "7": 26,
      "8": 27,
      "9": 28,
      ":": 29,
      ";": 30,
      "<": 31,
      "=": 32,
      ">": 33,
      "?": 34,
      "@": 35,
      "A": 36,
      "B": 37,
      "C": 38,
      "D": 39,
      "E": 40,
      "F": 41,
      "G": 42,
      "H": 43,
      "I": 44,
      "J": 45,
      "K": 46,
      "L": 47,
      "M": 48,
      "N": 49,
      "O": 50,
      "P": 51,
      "Q": 52,
      "R": 53,
      "S": 54,
      "T": 55,
      "U": 56,
      "V": 57,
      "W": 58,
      "X": 59,
      "Y": 60,
      "Z": 61,
      "[": 62,
      "\\": 63,
      "]": 64,
      "^": 65,
      "_": 66,
      "`": 67,
      "a": 68,
      "b": 69,
      "c": 70,
      "d": 71,
      "e": 72,
      "f": 73,
      "g": 74,
      "h": 75,
      "i": 76,
      "j": 77,
      "k": 78,
      "l": 79,
      "m": 80,
      "n": 81,
      "o": 82,
      "p": 83,
      "q": 84,
      "r": 85,
      "s": 86,
      "t": 87,
      "u": 88,
      "v": 89,
      "w": 90,
      "x": 91,
      "y": 92,
      "z": 93,
      "{": 94,
      "|": 95,
      "}": 96,
      "~": 97,
      "¡": 98,
      "¢": 99,
      "£": 100,
      "¤": 101,
      "¥": 102,
      "¦": 103,
      "§": 104,
      "¨": 105,
      "©": 106,
      "ª": 107,
      "«": 108,
      "¬": 109,
      "®": 110,
      "¯": 111,
      "°": 112,
      "±": 113,
      "²": 114,
      "³": 115,
      "´": 116,
      "µ": 117,
      "¶": 118,
      "·": 119,
      "¸": 120,
      "¹": 121,
      "º": 122,
      "»": 123,
      "¼": 124,
      "½": 125,
      "¾": 126,
      "¿": 127,
      "À": 128,
      "Á": 129,
      "Â": 130,
      "Ã": 131,
      "Ä": 132,
      "Å": 133,
      "Æ": 134,
      "Ç": 135,
      "È": 136,
      "É": 137,
      "Ê": 138,
      "Ë": 139,
      "Ì": 140,
      "Í": 141,
      "Î": 142,
      "Ï": 143,
      "Ð": 144,
      "Ñ": 145,
      "Ò": 146,
      "Ó": 147,
      "Ô": 148,
      "Õ": 149,
      "Ö": 150,
      "×": 151,
      "Ø": 152,
      "Ù": 153,
      "Ú": 154,
      "Û": 155,
      "Ü": 156,
      "Ý": 157,
      "Þ": 158,
      "ß": 159,
      "à": 160,
      "á": 161,
      "â": 162,
      "ã": 163,
      "ä": 164,
      "å": 165,
      "æ": 166,
      "ç": 167,
      "è": 168,
      "é": 169,
      "ê": 170,
      "ë": 171,
      "ì": 172,
      "í": 173,
      "î": 174,
      "ï": 175,
      "ð": 176,
      "ñ": 177,
      "ò": 178,
      "ó": 179,
      "ô": 180,
      "õ": 181,
      "ö": 182,
      "÷": 183,
      "ø": 184,
      "ù": 185,
      "ú": 186,
      "û": 187,
      "ü": 188,
      "ý": 189,
      "þ": 190,
      "ÿ": 191,
      "Ā": 192,
      "ā": 193,
      "Ă": 194,
      "ă": 195,
      "Ą": 196,
      "ą": 197,
      "Ć": 198,
      "ć": 199,
      "Ĉ": 200,
      "ĉ": 201,
      "Ċ": 202,
      "ċ": 203,
      "Č": 204,
      "č": 205,
      "Ď": 206,
      "ď": 207,
      "Đ": 208,
      "đ": 209,
      "Ē": 210,
      "ē": 211,
      "Ĕ": 212,
      "ĕ": 213,
      "Ė": 214,
      "ė": 215,
      "Ę": 216,
      "ę": 217,
      "Ě": 218,
      "ě": 219,
      "Ĝ": 220,
      "ĝ": 221,
      "Ğ": 222,
      "ğ": 223,
      "Ġ": 224,
      "ġ": 225,
      "Ģ": 226,
      "ģ": 227,
      "Ĥ": 228,
      "ĥ": 229,
      "Ħ": 230,
      "ħ": 231,
      "Ĩ": 232,
      "ĩ": 233,
      "Ī": 234,
      "ī": 235,
      "Ĭ": 236,
      "ĭ": 237,
      "Į": 238,
      "į": 239,
      "İ": 240,
      "ı": 241,
      "Ĳ": 242,
      "ĳ": 243,
      "Ĵ": 244,
      "ĵ": 245,
      "Ķ": 246,
      "ķ": 247,
      "ĸ": 248,
      "Ĺ": 249,
      "ĺ": 250,
      "Ļ": 251,
      "ļ": 252,
      "Ľ": 253,
      "ľ": 254,
      "Ŀ": 255,
      "ŀ": 256,
      "Ł": 257,
      "ł": 258,
      "Ń": 259,
      "he": 260,
      "Ġt": 261,
      "Ġa": 262,
      "Ġs": 263,
      "Ġw": 264,
      "nd": 265,
      "Ġthe": 266,
      "ed": 267,
      "Ġand": 268,
      "Ġto": 269,
      "Ġb": 270,
      "in": 271,
      "Ġh": 272,
      "Ġwa": 273,
      "re": 274,
      "ou": 275,
      "Ġf": 276,
      "it": 277,
      "Ġl": 278,
      "Ġc": 279,
      "Ġd": 280,
      "er": 281,
      "Ġhe": 282,
      "Ġm": 283,
      "Ġp": 284,
      "Ġwas": 285,
      "om": 286,
      "ĠT": 287,
      "Ġo": 288,
      "ay": 289,
      "ar": 290,
      "is": 291,
      "ing": 292,
      "il": 293,
      "Ġg": 294,
      "id": 295,
      "at": 296,
      "en": 297,
      "Ġn": 298,
      "Ġsa": 299,
      "Ġha": 300,
      "ĠS": 301,
      "ĠThe": 302,
      "an": 303,
      "im": 304,
      "or": 305,
      "on": 306,
      "Ġit": 307,
      "Ġth": 308,
      "ll": 309,
      "le": 310,
      "ĠH": 311,
      "Ġher": 312,
      "ot": 313,
      "et": 314,
      "ir": 315,
      "ĠShe": 316,
      "es": 317,
      "ĠHe": 318,
      "Ġin": 319,
      "ver": 320,
      "ut": 321,
      "ow": 322,
      "ĠThey": 323,
      "ck": 324,
      "Ġe": 325,
      "Ġu": 326,
      "ld": 327,
      "Ġy": 328,
      "oo": 329,
      "Ġsaid": 330,
      "ig": 331,
      "ily": 332,
      "Ġ\"": 333,
      "Ġr": 334,
      "Ġbe": 335,
      "am": 336,
      "Ġst": 337,
      "ĠI": 338,
      "ce": 339,
      "ke": 340,
      "Ġshe": 341,
      "ve": 342,
      "pp": 343,
      "ith": 344,
      "Ġwith": 345,
      "Lily": 346,
      "On": 347,
      "Ġon": 348,
      "Ġyou": 349,
      "Ġof": 350,
      "ked": 351,
      "ri": 352,
      "Ġso": 353,
      "nt": 354,
      "Ġhis": 355,
      "Ġpl": 356,
      "ad": 357,
      "very": 358,
      "Ġday": 359,
      "Ġthat": 360,
      "Ġup": 361,
      "Ġplay": 362,
      "Ġhad": 363,
      "st": 364,
      "Ġthey": 365,
      "Ġwe": 366,
      "ĠLily": 367,
      "Ġmom": 368,
      "Ġfor": 369,
      "ĠB": 370,
      "el": 371,
      "un": 372,
      "ould": 373,
      "'s": 374,
      "my": 375,
      "The": 376,
      "Ġli": 377,
      "ch": 378,
      "ent": 379,
      "Ġhapp": 380,
      "Ġwant": 381,
      "itt": 382,
      "Ġsh": 383,
      "out": 384,
      "her": 385,
      "Ġdo": 386,
      "ly": 387,
      "Ġnot": 388,
      "ome": 389,
      "se": 390,
      "Ġvery": 391,
      "ound": 392,
      "end": 393,
      "all": 394,
      "Ġwh": 395,
      "ime": 396,
      "ittle": 397,
      "Ġk": 398,
      "Ġtime": 399,
      "Ġlittle": 400,
      "al": 401,
      "Ġthere": 402,
      "Ġne": 403,
      "ht": 404,
      "ĠM": 405,
      "Ġre": 406,
      "Ġhappy": 407,
      "Ġsm": 408,
      "Ġbig": 409,
      "Ġis": 410,
      "ĠĊ": 411,
      "ĠIt": 412,
      "Ġbut": 413,
      "ack": 414,
      "Ġan": 415,
      "Ġsaw": 416,
      "riend": 417,
      "Ġfriend": 418,
      ".\"": 419,
      "Ġas": 420,
      "ry": 421,
      "ra": 422,
      "One": 423,
      "ide": 424,
      "ake": 425,
      "'t": 426,
      "!\"": 427,
      "ug": 428,
      "Ġloo": 429,
      "ved": 430,
      "ter": 431,
      "Ġwere": 432,
      "ore": 433,
      "Once": 434,
      "Ġlo": 435,
      "ec": 436,
      "Ġhim": 437,
      "Ġtoo": 438,
      "Ġgo": 439,
      "Ġbo": 440,
      "Ġse": 441,
      "irl": 442,
      "Ġare": 443,
      "Ġj": 444,
      "ĠTim": 445,
      "ard": 446,
      "Ġwanted": 447,
      "ill": 448,
      "Ġgirl": 449,
      "Ġupon": 450,
      "Ġout": 451,
      "Ġthem": 452,
      "Ġat": 453,
      "ur": 454,
      "ind": 455,
      "Ġtheir": 456,
      "fu": 457,
      "Ġsp": 458,
      "way": 459,
      "ĠA": 460,
      "Ġsmil": 461,
      "Ġdid": 462,
      "Ġcould": 463,
      "hen": 464,
      "Ġhave": 465,
      "ain": 466,
      "art": 467,
      "Ġex": 468,
      "hed": 469,
      "rom": 470,
      "Ġwent": 471,
      "Ġar": 472,
      "ic": 473,
      "Ġcan": 474,
      "ĠJ": 475,
      "lp": 476,
      "ful": 477,
      "ĠBen": 478,
      "ood": 479,
      "?\"": 480,
      "hing": 481,
      "Ġfriends": 482,
      "Ġnam": 483,
      "ight": 484,
      "Ġall": 485,
      "Ġhelp": 486,
      "Ġkn": 487,
      "um": 488,
      "one": 489,
      "ark": 490,
      "Ġback": 491,
      "Ġsay": 492,
      "You": 493,
      "Ġfun": 494,
      "Ġcl": 495,
      "ĠTom": 496,
      "are": 497,
      "Ġno": 498,
      "Ġle": 499,
      "op": 500,
      "Ġsmiled": 501,
      "Ġsc": 502,
      "Ġnamed": 503,
      "Ġal": 504,
      "oug": 505,
      "Ġloved": 506,
      "side": 507,
      "elt": 508,
      "ĠOne": 509,
      "Ġman": 510,
      "Ġasked": 511,
      "ick": 512,
      "Ġtoy": 513,
      "Ġlike": 514,
      "Ġfe": 515,
      "Ġfelt": 516,
      "Ġlooked": 517,
      "Ġsome": 518,
      "Ġaround": 519,
      "Ġsee": 520,
      "Ġme": 521,
      "ame": 522,
      "omet": 523,
      "ĠW": 524,
      "Ġro": 525,
      "Ġbr": 526,
      "ure": 527,
      "ĠTimmy": 528,
      "Ġbir": 529,
      "get": 530,
      "ice": 531,
      "Ġboy": 532,
      "Ġwould": 533,
      "Ġstart": 534,
      "ong": 535,
      "Ã¢": 536,
      "âĤ": 537,
      "âĤ¬": 538,
      "ss": 539,
      "Ġbird": 540,
      "Ġsomet": 541,
      "Ġfa": 542,
      "dd": 543,
      "ings": 544,
      "Ġag": 545,
      "Ġwor": 546,
      "Ġwhat": 547,
      "ade": 548,
      "Ġmake": 549,
      "king": 550,
      ",\"": 551,
      "ie": 552,
      "ĠBut": 553,
      "own": 554,
      "Ġtre": 555,
      "Ġran": 556,
      "gether": 557,
      "ĠYou": 558,
      "Ġaway": 559,
      "ag": 560,
      "ared": 561,
      "Ġsays": 562,
      "Ġstarted": 563,
      "oud": 564,
      "if": 565,
      "Ġmade": 566,
      "Ġcar": 567,
      "Ġsomething": 568,
      "Ġtogether": 569,
      "ited": 570,
      "ther": 571,
      "Ġpark": 572,
      "Ġco": 573,
      "Ġsad": 574,
      "Ġother": 575,
      "Ġnew": 576,
      "Ġexc": 577,
      "Ġput": 578,
      "Ġfrom": 579,
      "Ġpr": 580,
      "ell": 581,
      "ĠL": 582,
      "Ġla": 583,
      "Ġhug": 584,
      "ble": 585,
      "Ġmu": 586,
      "ook": 587,
      "ach": 588,
      "Ġagain": 589,
      "Ġhome": 590,
      "Ġwhen": 591,
      "Ġgood": 592,
      "ep": 593,
      "hat": 594,
      "Ġwho": 595,
      "est": 596,
      "ried": 597,
      "Ġfound": 598,
      "Ġfl": 599,
      "Ġthen": 600,
      "Ġch": 601,
      "Ġdec": 602,
      "pped": 603,
      "Ġwal": 604,
      "as": 605,
      "Ġget": 606,
      "qu": 607,
      "Ġplaying": 608,
      "ought": 609,
      "pl": 610,
      "ĠE": 611,
      "ally": 612,
      "Ġsw": 613,
      "ous": 614,
      "nn": 615,
      "Ġthings": 616,
      "Ġexcited": 617,
      "Ġliked": 618,
      "Ġgot": 619,
      "uck": 620,
      "ro": 621,
      "ided": 622,
      "Ġdecided": 623,
      "Ġbl": 624,
      "ave": 625,
      "Ġcame": 626,
      "Ġevery": 627,
      "ara": 628,
      "ĠD": 629,
      "Ġyour": 630,
      "ĠMom": 631,
      "ax": 632,
      "Ġv": 633,
      "Ġscared": 634,
      "ust": 635,
      "Ġone": 636,
      "Ġdog": 637,
      "Ġdown": 638,
      "ny": 639,
      "ouse": 640,
      "Ġfind": 641,
      "Ġcare": 642,
      "Ġbec": 643,
      "ist": 644,
      "Ġthan": 645,
      "Ġfeel": 646,
      "ap": 647,
      "ue": 648,
      "udd": 649,
      "nna": 650,
      "Ġdad": 651,
      "Ġab": 652,
      "They": 653,
      "Ġmy": 654,
      "Ġlook": 655,
      "Ġke": 656,
      "our": 657,
      "Ġwill": 658,
      "arn": 659,
      "Ġgr": 660,
      "us": 661,
      "nder": 662,
      "Ġgra": 663,
      "ways": 664,
      "ess": 665,
      "Ġdidn": 666,
      "Ġpo": 667,
      "fe": 668,
      "Ġalways": 669,
      "Ġtook": 670,
      "Ġabout": 671,
      "ant": 672,
      "bb": 673,
      "Ġmommy": 674,
      "Ġlot": 675,
      "Ġkne": 676,
      "Ġtoys": 677,
      "ers": 678,
      "ise": 679,
      "Ġoutside": 680,
      "ite": 681,
      "Ġtree": 682,
      "Ġthought": 683,
      "Ġball": 684,
      "ĠF": 685,
      "Ġmore": 686,
      "eci": 687,
      "ĠSam": 688,
      "ened": 689,
      "ched": 690,
      "Ġta": 691,
      "Ġold": 692,
      "Ġho": 693,
      "Ġlearn": 694,
      "ret": 695,
      "Ġint": 696,
      "ged": 697,
      "Ġknow": 698,
      "Ġlaug": 699,
      "Ġtake": 700,
      "ecial": 701,
      "Ġspecial": 702,
      "Ġsor": 703,
      "udden": 704,
      "Ġcat": 705,
      "Ġknew": 706,
      "ĠMax": 707,
      "ive": 708,
      "Ġpe": 709,
      "ia": 710,
      "uddenly": 711,
      "Ġany": 712,
      "Ġtr": 713,
      "fter": 714,
      "Ġhow": 715,
      "ma": 716,
      "Ġshow": 717,
      "ink": 718,
      "Ġsorry": 719,
      "Ġtw": 720,
      "But": 721,
      "Ġmuch": 722,
      "au": 723,
      "ish": 724,
      "Ġrun": 725,
      "and": 726,
      "Ġhand": 727,
      "Ġsl": 728,
      "ven": 729,
      "Ġhouse": 730,
      "Ġor": 731,
      "Ġop": 732,
      "Ġsk": 733,
      "Ġmo": 734,
      "Ġclo": 735,
      "Ġsun": 736,
      "Ġinto": 737,
      "Ġtried": 738,
      "Ġinside": 739,
      "ate": 740,
      "Ġtold": 741,
      "Ġwater": 742,
      "Ġen": 743,
      "Ġthis": 744,
      "ank": 745,
      "Ġif": 746,
      "ump": 747,
      "Ġproud": 748,
      "Ġqu": 749,
      "Ġover": 750,
      "Ġcouldn": 751,
      "Tom": 752,
      "dy": 753,
      "Ġgave": 754,
      "Ġheard": 755,
      "ĠSara": 756,
      "Ġnever": 757,
      "by": 758,
      "Ġeach": 759,
      "ace": 760,
      "Ġroom": 761,
      "ty": 762,
      "ĠEvery": 763,
      "Ġexpl": 764,
      "Ġeat": 765,
      "other": 766,
      "ĠWe": 767,
      "ause": 768,
      "Ġpick": 769,
      "ion": 770,
      "Ġpret": 771,
      "ĠAnna": 772,
      "Ġplayed": 773,
      "Mom": 774,
      "ge": 775,
      "etter": 776,
      "Ġjust": 777,
      "ak": 778,
      "Ġhugged": 779,
      "Ġgre": 780,
      "here": 781,
      "Ġoff": 782,
      "Ġcom": 783,
      "Ġwat": 784,
      "oth": 785,
      "Ġbox": 786,
      "Ġnice": 787,
      "'m": 788,
      "Ġbecause": 789,
      "Ġstr": 790,
      "Ġneed": 791,
      "ile": 792,
      "Ġmany": 793,
      "Ġfo": 794,
      "uc": 795,
      "Ġjo": 796,
      "Ġbear": 797,
      "Ġsmall": 798,
      "iz": 799,
      "Ġbu": 800,
      "Ġlong": 801,
      "ving": 802,
      "ine": 803,
      "gry": 804,
      "ort": 805,
      "imal": 806,
      "Ġanimal": 807,
      "Ġsn": 808,
      "ough": 809,
      "Ġtry": 810,
      "Ġunt": 811,
      "ild": 812,
      "sel": 813,
      "urt": 814,
      "Ġuntil": 815,
      "ĠJack": 816,
      "sed": 817,
      "Ġkind": 818,
      "Ġlearned": 819,
      "Ġim": 820,
      "Ġlove": 821,
      "Ġbetter": 822,
      "ft": 823,
      "Ġflow": 824,
      "Ġcall": 825,
      "ĠJo": 826,
      "He": 827,
      "Ġdon": 828,
      "Ġend": 829,
      "Ġad": 830,
      "ull": 831,
      "Ġbest": 832,
      "vent": 833,
      "Yes": 834,
      "ars": 835,
      "urp": 836,
      "ady": 837,
      "em": 838,
      "ream": 839,
      "aut": 840,
      "urn": 841,
      "Ġcle": 842,
      "ĠMia": 843,
      "ĠAnd": 844,
      "ves": 845,
      "Åĵ": 846,
      "arden": 847,
      "ĠC": 848,
      "Ġgarden": 849,
      "Ġfast": 850,
      "ber": 851,
      "Ġcareful": 852,
      "Ġbeaut": 853,
      "lly": 854,
      "Th": 855,
      "Ġeven": 856,
      "pt": 857,
      "Ġbra": 858,
      "ies": 859,
      "Ġthanked": 860,
      "ĠSo": 861,
      "Ġfi": 862,
      "Ġche": 863,
      "Ġlaughed": 864,
      "Ġsky": 865,
      "Ġby": 866,
      "It": 867,
      "ĠHer": 868,
      "Ġjump": 869,
      "Ġgl": 870,
      "ase": 871,
      "Ġte": 872,
      "Ġloud": 873,
      "self": 874,
      "iny": 875,
      "Ġway": 876,
      "wn": 877,
      "Ġbeauti": 878,
      "Ġcome": 879,
      "lew": 880,
      "Ġlist": 881,
      "Ġbeautiful": 882,
      "Ġwo": 883,
      "Ġhard": 884,
      "Ġlots": 885,
      "Ġra": 886,
      "Ġstill": 887,
      "Ġfam": 888,
      "Ġanimals": 889,
      "ĠÃ¢": 890,
      "Ġhurt": 891,
      "Ġunder": 892,
      "ĠThen": 893,
      "ect": 894,
      "Ġstay": 895,
      "ning": 896,
      "Ġlet": 897,
      "ct": 898,
      "Ġboth": 899,
      "Ġcu": 900,
      "ĠHis": 901,
      "hes": 902,
      "be": 903,
      "Ġsafe": 904,
      "ĠFrom": 905,
      "ool": 906,
      "ree": 907,
      "Ġcol": 908,
      "Ġtwo": 909,
      "Ġbad": 910,
      "Ġimp": 911,
      "ople": 912,
      "Ġbook": 913,
      "Ġrem": 914,
      "ane": 915,
      "Ġlived": 916,
      "kay": 917,
      "ock": 918,
      "ucy": 919,
      "Ġwalked": 920,
      "Tim": 921,
      "ast": 922,
      "urpr": 923,
      "Ġbrave": 924,
      "Ġshould": 925,
      "Ġits": 926,
      "ob": 927,
      "ished": 928,
      "Ġsurpr": 929,
      "Ġangry": 930,
      "Ġfamily": 931,
      "ress": 932,
      "igh": 933,
      "When": 934,
      "Ġpeople": 935,
      "Ġflew": 936,
      "Ġcalled": 937,
      "No": 938,
      "Ġred": 939,
      "Ġstor": 940,
      "ip": 941,
      "Ġfin": 942,
      "Ġsoon": 943,
      "hn": 944,
      "Let": 945,
      "led": 946,
      "Ġkept": 947,
      "Ġfore": 948,
      "fore": 949,
      "Ġdan": 950,
      "Ġshare": 951,
      "Ġfly": 952,
      "xt": 953,
      "ised": 954,
      "dded": 955,
      "Ġpic": 956,
      "âĤ¬â": 957,
      "Ġdoor": 958,
      "Ġgoing": 959,
      "ĠP": 960,
      "ĠWhen": 961,
      "Ġpretty": 962,
      "Ġkeep": 963,
      "Ġclean": 964,
      "Ġrock": 965,
      "Ġnow": 966,
      "Ġdra": 967,
      "Ġadvent": 968,
      "ary": 969,
      "ummy": 970,
      "Ġnoise": 971,
      "Ġopened": 972,
      "Ġshiny": 973,
      "age": 974,
      "Ġexplore": 975,
      "Ġwind": 976,
      "Ġdoll": 977,
      "Ġcon": 978,
      "Ġcry": 979,
      "Ġide": 980,
      "Ġbefore": 981,
      "ied": 982,
      "illy": 983,
      "Ben": 984,
      "Ġreal": 985,
      "Ġsto": 986,
      "so": 987,
      "What": 988,
      "Ġground": 989,
      "Ġalso": 990,
      "les": 991,
      "Ġturn": 992,
      "Ħ¢": 993,
      "âĤ¬âĦ¢": 994,
      "Ġey": 995,
      "That": 996,
      "Ġfar": 997,
      "Ġidea": 998,
      "Ġfr": 999,
      "oon": 1000,
      "Ġnodded": 1001,
      "Ġcolor": 1002,
      "Ġwar": 1003,
      "oy": 1004,
      "Ġfeeling": 1005,
      "Ġpicked": 1006,
      "Ġun": 1007,
      "imb": 1008,
      "th": 1009,
      "Ġwalking": 1010,
      "ĠLucy": 1011,
      "Ġnext": 1012,
      "thing": 1013,
      "ture": 1014,
      "ĠDad": 1015,
      "Ġclimb": 1016,
      "Ġhas": 1017,
      "uch": 1018,
      "Ġma": 1019,
      "Ġthr": 1020,
      "Ġwhile": 1021,
      "eet": 1022,
      "Ġbed": 1023,
      "Ġadventure": 1024,
      "Ġsmile": 1025,
      "kes": 1026,
      "aybe": 1027,
      "Thank": 1028,
      "iced": 1029,
      "ger": 1030,
      "ious": 1031,
      "Ġbeing": 1032,
      "ĠG": 1033,
      "Ġdif": 1034,
      "Ġwr": 1035,
      "Ġclos": 1036,
      "Ġfood": 1037,
      "joy": 1038,
      "ted": 1039,
      "Ġgive": 1040,
      "Ġpicture": 1041,
      "Ġthink": 1042,
      "ĠSp": 1043,
      "Ġlooking": 1044,
      "Ġdel": 1045,
      "ff": 1046,
      "ac": 1047,
      "Ġwait": 1048,
      "Ġtruck": 1049,
      "ught": 1050,
      "Ġeyes": 1051,
      "Ġtow": 1052,
      "ting": 1053,
      "Ġrepl": 1054,
      "Ġbro": 1055,
      "Ġstopped": 1056,
      "Ġlisten": 1057,
      "Ġafter": 1058,
      "Ġbre": 1059,
      "Ġown": 1060,
      "Ġvo": 1061,
      "Ġwalk": 1062,
      "ember": 1063,
      "ĠSuddenly": 1064,
      "Ġgreat": 1065,
      "Ġwonder": 1066,
      "Ġhands": 1067,
      "Suddenly": 1068,
      "Ġshout": 1069,
      "Ġhead": 1070,
      "Ġenjoy": 1071,
      "Ġimport": 1072,
      "Ġever": 1073,
      "Ġflowers": 1074,
      "Ġforest": 1075,
      "bbit": 1076,
      "Ġnoticed": 1077,
      "Ġblue": 1078,
      "ized": 1079,
      "She": 1080,
      "Ġapp": 1081,
      "Ġquick": 1082,
      "Ġdis": 1083,
      "Ġnear": 1084,
      "irst": 1085,
      "Ġde": 1086,
      "Ġimportant": 1087,
      "able": 1088,
      "Ġremember": 1089,
      "Ġfish": 1090,
      "llow": 1091,
      "Ġsound": 1092,
      "Ġslide": 1093,
      "maz": 1094,
      "Ġus": 1095,
      "Ġreplied": 1096,
      "Ġac": 1097,
      "Ġamaz": 1098,
      "Ġwork": 1099,
      "lease": 1100,
      "Ġrain": 1101,
      "Ġwatch": 1102,
      "Ġshowed": 1103,
      "Ġrabbit": 1104,
      "gan": 1105,
      "Ġokay": 1106,
      "Ġtal": 1107,
      "bye": 1108,
      "fere": 1109,
      "bbed": 1110,
      "Ġdiffere": 1111,
      "Ġask": 1112,
      "Ġmean": 1113,
      "Ġright": 1114,
      "Ġye": 1115,
      "day": 1116,
      "Ġwatched": 1117,
      "Ġbright": 1118,
      "Ġfollow": 1119,
      "So": 1120,
      "We": 1121,
      "ĠSpot": 1122,
      "Ġeveryone": 1123,
      "Ġstrong": 1124,
      "Ġsqu": 1125,
      "Ġstick": 1126,
      "Ġbeen": 1127,
      "Ġuse": 1128,
      "Ġmor": 1129,
      "Ġvoice": 1130,
      "Ġtra": 1131,
      "ered": 1132,
      "Ġquickly": 1133,
      "ath": 1134,
      "Ġwhere": 1135,
      "Ġour": 1136,
      "Ġyell": 1137,
      "ĠN": 1138,
      "ĠMommy": 1139,
      "Anna": 1140,
      "Ġdifferent": 1141,
      "ĠBob": 1142,
      "Ġchild": 1143,
      "Ġboat": 1144,
      "ng": 1145,
      "Ġcuri": 1146,
      "Ġsure": 1147,
      "ĠSue": 1148,
      "Ġbecame": 1149,
      "Ġgoodbye": 1150,
      "Ġface": 1151,
      "Ġplace": 1152,
      "ange": 1153,
      "Ġhop": 1154,
      "Ġhigh": 1155,
      "aught": 1156,
      "Ġam": 1157,
      "ĠR": 1158,
      "Look": 1159,
      "Ġstore": 1160,
      "Ġcloser": 1161,
      "Ġwarm": 1162,
      "Ġcr": 1163,
      "Ġdoes": 1164,
      "Ġdress": 1165,
      "unny": 1166,
      "Sara": 1167,
      "Ġmag": 1168,
      "Ġcurious": 1169,
      "ila": 1170,
      "Jo": 1171,
      "Ġcook": 1172,
      "Ġforg": 1173,
      "Ġbel": 1174,
      "Ġtell": 1175,
      "Ġfav": 1176,
      "ndma": 1177,
      "ass": 1178,
      "ount": 1179,
      "co": 1180,
      "Ġthree": 1181,
      "leep": 1182,
      "Ġnight": 1183,
      "Ġopen": 1184,
      "Ġcake": 1185,
      "more": 1186,
      "Ġanymore": 1187,
      "Ġhere": 1188,
      "Ġblock": 1189,
      "Ġbus": 1190,
      "Ġfirst": 1191,
      "itc": 1192,
      "Ġpull": 1193,
      "iss": 1194,
      "ached": 1195,
      "Her": 1196,
      "ired": 1197,
      "Ġbutter": 1198,
      "Ġz": 1199,
      "imes": 1200,
      "ĠTh": 1201,
      "orn": 1202,
      "Ġsweet": 1203,
      "Ġpain": 1204,
      "Ġgrabbed": 1205,
      "Ġkid": 1206,
      "Ġpu": 1207,
      "Can": 1208,
      "isy": 1209,
      "Ġonly": 1210,
      "Ġmon": 1211,
      "Ġlea": 1212,
      "Ġfell": 1213,
      "Ġba": 1214,
      "Ġru": 1215,
      "Ġcont": 1216,
      "Ġbirds": 1217,
      "Ġjumped": 1218,
      "Ġglad": 1219,
      "Ġbit": 1220,
      "Ġsand": 1221,
      "itchen": 1222,
      "Ġkitchen": 1223,
      "Ġhelped": 1224,
      "Ġsees": 1225,
      "Ġper": 1226,
      "Ġfire": 1227,
      "Ġflo": 1228,
      "Ġstop": 1229,
      "ĠSarah": 1230,
      "Ġhappened": 1231,
      "Ġsing": 1232,
      "Ġgrass": 1233,
      "Ġbunny": 1234,
      "Ġshouted": 1235,
      "Ġstory": 1236,
      "Ġtri": 1237,
      "nts": 1238,
      "ĠLet": 1239,
      "Ġdr": 1240,
      "After": 1241,
      "air": 1242,
      "ĠJane": 1243,
      "ppy": 1244,
      "Ġreached": 1245,
      "Ġbeh": 1246,
      "Ġrealized": 1247,
      "Ġyummy": 1248,
      "Ġbrother": 1249,
      "ĠDo": 1250,
      "Ġlady": 1251,
      "Ġmum": 1252,
      "Ġhaving": 1253,
      "Ġprin": 1254,
      "Ġfavor": 1255,
      "ĠAs": 1256,
      "ins": 1257,
      "'re": 1258,
      "Ġmess": 1259,
      "Ġfavorite": 1260,
      "Ġrest": 1261,
      "Ġcre": 1262,
      "Ġdraw": 1263,
      "Ġthrough": 1264,
      "Ġate": 1265,
      "Ġgame": 1266,
      "Ġhat": 1267,
      "Ġless": 1268,
      "Ġunderst": 1269,
      "ĠEveryone": 1270,
      "akes": 1271,
      "Ġsoft": 1272,
      "zy": 1273,
      "Ġpare": 1274,
      "Ġthing": 1275,
      "Ġreally": 1276,
      "ather": 1277,
      "Ġready": 1278,
      "Mommy": 1279,
      "Ġbegan": 1280,
      "where": 1281,
      "Ġpretend": 1282,
      "Ġworld": 1283,
      "ĠCan": 1284,
      "ĠJoe": 1285,
      "ĠThat": 1286,
      "Ġlooks": 1287,
      "Ġhimself": 1288,
      "ken": 1289,
      "fully": 1290,
      "Ġmagic": 1291,
      "Ġpap": 1292,
      "Ġdone": 1293,
      "Ġbutterf": 1294,
      "Ġmaking": 1295,
      "Ġcut": 1296,
      "Ġcoming": 1297,
      "ater": 1298,
      "Ġduck": 1299,
      "Ġpond": 1300,
      "Ġkids": 1301,
      "Ġwaved": 1302,
      "Ġwhy": 1303,
      "Ġtired": 1304,
      "Ġfro": 1305,
      "Ġprom": 1306,
      "Ġfix": 1307,
      "olly": 1308,
      "ster": 1309,
      "Ġworry": 1310,
      "Ġmouse": 1311,
      "Ġpart": 1312,
      "Ġste": 1313,
      "Ġcars": 1314,
      "Ġdelic": 1315,
      "Ġflower": 1316,
      "Ġname": 1317,
      "ign": 1318,
      "Ġfill": 1319,
      "aisy": 1320,
      "Wow": 1321,
      "Ġtouch": 1322,
      "eddy": 1323,
      "Ġfunny": 1324,
      "Ġcatch": 1325,
      "sh": 1326,
      "bo": 1327,
      "Ġused": 1328,
      "Ġseen": 1329,
      "Ġhair": 1330,
      "ĠJohn": 1331,
      "Ġtast": 1332,
      "ient": 1333,
      "Ġtop": 1334,
      "rel": 1335,
      "Ġparents": 1336,
      "Ġanother": 1337,
      "iver": 1338,
      "Ġhopped": 1339,
      "uff": 1340,
      "Ġcried": 1341,
      "Ġhold": 1342,
      "oney": 1343,
      "mer": 1344,
      "Ġcool": 1345,
      "Ġdoing": 1346,
      "Ġblocks": 1347,
      "\".": 1348,
      "hy": 1349,
      "Ġpus": 1350,
      "Ġsurprise": 1351,
      "Ġlight": 1352,
      "Ġgreen": 1353,
      "As": 1354,
      "Ġthank": 1355,
      "Ġlesson": 1356,
      "Timmy": 1357,
      "ation": 1358,
      "Ġread": 1359,
      "Ġdin": 1360,
      "Ġfloor": 1361,
      "Ġfull": 1362,
      "Ġwood": 1363,
      "Ġgi": 1364,
      "Don": 1365,
      "Ġdri": 1366,
      "ards": 1367,
      "Ġtrees": 1368,
      "Ġrunning": 1369,
      "Ġworked": 1370,
      "Ġwindow": 1371,
      "Ġyears": 1372,
      "Ġcra": 1373,
      "Ġdro": 1374,
      "Ġdark": 1375,
      "Ġ-": 1376,
      "Ġbehind": 1377,
      "Ġspot": 1378,
      "Ġsmell": 1379,
      "Ġlikes": 1380,
      "Ġwished": 1381,
      "Ġpaper": 1382,
      "ued": 1383,
      "Ġyellow": 1384,
      "andy": 1385,
      "ren": 1386,
      "Ġbow": 1387,
      "ul": 1388,
      "John": 1389,
      "Ġswim": 1390,
      "Ġhappily": 1391,
      "Ġsat": 1392,
      "Ġbag": 1393,
      "Ġsho": 1394,
      "Sam": 1395,
      "Ġsleep": 1396,
      "aring": 1397,
      "Ġsurprised": 1398,
      "ely": 1399,
      "Ġfrog": 1400,
      "Ġbutterfly": 1401,
      "ike": 1402,
      "Ġswing": 1403,
      "Ġset": 1404,
      "Ġcarefully": 1405,
      "ĠIn": 1406,
      "Ġslow": 1407,
      "Ġremembered": 1408,
      "Ġlost": 1409,
      "Ġcold": 1410,
      "Ġheld": 1411,
      "ello": 1412,
      "Ġhole": 1413,
      "Ġice": 1414,
      "Hello": 1415,
      "Ġlaugh": 1416,
      "rew": 1417,
      "Ġneeded": 1418,
      "Ġbuy": 1419,
      "Ġperf": 1420,
      "Ġleft": 1421,
      "ons": 1422,
      "Ġmove": 1423,
      "cess": 1424,
      "reed": 1425,
      "Ġanything": 1426,
      "Ġenjoyed": 1427,
      "Ġtall": 1428,
      "Ġdream": 1429,
      "Ġwrong": 1430,
      "Ġarri": 1431,
      "uit": 1432,
      "Ġhear": 1433,
      "inally": 1434,
      "Ġair": 1435,
      "Ġfair": 1436,
      "Ġfollowed": 1437,
      "ross": 1438,
      "Ġel": 1439,
      "Ġbooks": 1440,
      "Ġchildren": 1441,
      "Ġhun": 1442,
      "Ġdelicious": 1443,
      "Ġtable": 1444,
      "Ġfinished": 1445,
      "Ġcontin": 1446,
      "Ġfriendly": 1447,
      "Ġdir": 1448,
      "Ġhot": 1449,
      "Ġsnow": 1450,
      "Ġherself": 1451,
      "ds": 1452,
      "ĠAfter": 1453,
      "lf": 1454,
      "Ġhill": 1455,
      "ens": 1456,
      "Ġunderstand": 1457,
      "Ġplease": 1458,
      "Ġclose": 1459,
      "ined": 1460,
      "Ġhid": 1461,
      "Ġarrived": 1462,
      "Ġcast": 1463,
      "Ġelse": 1464,
      "Ġarm": 1465,
      "Ġwonderful": 1466,
      "Ġbaby": 1467,
      "Ġmight": 1468,
      "Ġgent": 1469,
      "Ġtight": 1470,
      "sp": 1471,
      "Ġforgot": 1472,
      "ield": 1473,
      "ĠSally": 1474,
      "Ġbug": 1475,
      "Ġcolors": 1476,
      "Ġrel": 1477,
      "Ġbuild": 1478,
      "ĠDaisy": 1479,
      "Ġbroken": 1480,
      "Ġable": 1481,
      "Ġgone": 1482,
      "av": 1483,
      "ĠBenny": 1484,
      "ner": 1485,
      "ĠNow": 1486,
      "ĠLila": 1487,
      "Ġyes": 1488,
      "atter": 1489,
      "Ġwall": 1490,
      "Ġsong": 1491,
      "Then": 1492,
      "ich": 1493,
      "Ġfilled": 1494,
      "Ġsquir": 1495,
      "Ġagreed": 1496,
      "Ġsomeone": 1497,
      "Jack": 1498,
      "Ġcontinued": 1499,
      "room": 1500,
      "Ġcreat": 1501,
      "asure": 1502,
      "'ll": 1503,
      "Ġcount": 1504,
      "Ġwants": 1505,
      "ĠEm": 1506,
      "Ġsquirrel": 1507,
      "Ġpink": 1508,
      "Ġleaves": 1509,
      "ask": 1510,
      "Ġenough": 1511,
      "ey": 1512,
      "ĠThere": 1513,
      "ĠTommy": 1514,
      "Ġlion": 1515,
      "From": 1516,
      "ama": 1517,
      "ee": 1518,
      "OK": 1519,
      "Ġmorning": 1520,
      "Ġmoment": 1521,
      "Ġvis": 1522,
      "Ġfinally": 1523,
      "Ġgetting": 1524,
      "Ġstayed": 1525,
      "Ġcookies": 1526,
      "Ġbreak": 1527,
      "app": 1528,
      "ance": 1529,
      "Ġpoin": 1530,
      "Ġbeach": 1531,
      "ĠK": 1532,
      "Ġfew": 1533,
      "Ġfight": 1534,
      "ĠMaybe": 1535,
      "Ġscary": 1536,
      "Ġsometimes": 1537,
      "ced": 1538,
      "ries": 1539,
      "row": 1540,
      "ash": 1541,
      "red": 1542,
      "Ġdinner": 1543,
      "Ġturned": 1544,
      "Ġfall": 1545,
      "Ġhungry": 1546,
      "gon": 1547,
      "Ġmother": 1548,
      "Ġgrandma": 1549,
      "Ġwet": 1550,
      "Ġju": 1551,
      "ĠWhat": 1552,
      "Ġamazing": 1553,
      "Ġtrying": 1554,
      "Ġcream": 1555,
      "apped": 1556,
      "His": 1557,
      "Ġdaddy": 1558,
      "Ġperfect": 1559,
      "Ġmakes": 1560,
      "Ġpi": 1561,
      "Ġothers": 1562,
      "Ġcastle": 1563,
      "At": 1564,
      "Ġclimbed": 1565,
      "oup": 1566,
      "key": 1567,
      "ĠThis": 1568,
      "This": 1569,
      "Ġpictures": 1570,
      "icy": 1571,
      "Ġcomp": 1572,
      "amp": 1573,
      "Ġmet": 1574,
      "Ġtalk": 1575,
      "Ġmus": 1576,
      "oom": 1577,
      "Ġwhite": 1578,
      "Ġlistened": 1579,
      "Ġsmiles": 1580,
      "man": 1581,
      "Ġfur": 1582,
      "oring": 1583,
      "Ġballoon": 1584,
      "Ġclot": 1585,
      "ĠGra": 1586,
      "Ġclothes": 1587,
      "Ġalone": 1588,
      "ĠBilly": 1589,
      "Ġpol": 1590,
      "lc": 1591,
      "Ġtail": 1592,
      "rot": 1593,
      "Ġjoy": 1594,
      "ated": 1595,
      "Ġpuppy": 1596,
      "Oh": 1597,
      "Ġmar": 1598,
      "Ġspl": 1599,
      "ence": 1600,
      "Ġwasn": 1601,
      "Ġbrought": 1602,
      "Ġdeep": 1603,
      "Ġeverything": 1604,
      "Ġsear": 1605,
      "Ġstrange": 1606,
      "Ġpet": 1607,
      "ister": 1608,
      "ctor": 1609,
      "Ġspark": 1610,
      "der": 1611,
      "Ġsit": 1612,
      "Ġgrow": 1613,
      "Ġwoods": 1614,
      "Ġpulled": 1615,
      "ling": 1616,
      "Ġsail": 1617,
      "ĠTo": 1618,
      "ott": 1619,
      "Ġwon": 1620,
      "Ġride": 1621,
      "Ġplan": 1622,
      "eter": 1623,
      "Ġasks": 1624,
      "Ġfox": 1625,
      "Ġpie": 1626,
      "Ġtreat": 1627,
      "Ġdanger": 1628,
      "uffy": 1629,
      "Ġvisit": 1630,
      "Ġroll": 1631,
      "ĠAmy": 1632,
      "os": 1633,
      "Ġleave": 1634,
      "med": 1635,
      "ĠJen": 1636,
      "Ġpat": 1637,
      "ucky": 1638,
      "Ġmusic": 1639,
      "Ġamazed": 1640,
      "Ġwaited": 1641,
      "Ġteddy": 1642,
      "Ġhide": 1643,
      "me": 1644,
      "ang": 1645,
      "ever": 1646,
      "Ġtowards": 1647,
      "Max": 1648,
      "ower": 1649,
      "Ġfield": 1650,
      "Ġpre": 1651,
      "Ġland": 1652,
      "Ġflying": 1653,
      "zz": 1654,
      "Ġpen": 1655,
      "Ġsilly": 1656,
      "Ġshared": 1657,
      "Ġowner": 1658,
      "ained": 1659,
      "Ġruns": 1660,
      "Ġcloud": 1661,
      "ape": 1662,
      "ugg": 1663,
      "Ġliving": 1664,
      "Ġqui": 1665,
      "Ġjob": 1666,
      "ames": 1667,
      "Ġpromised": 1668,
      "Ġbelie": 1669,
      "igg": 1670,
      "Okay": 1671,
      "Ġgu": 1672,
      "Ġmoral": 1673,
      "Ġside": 1674,
      "orm": 1675,
      "ol": 1676,
      "gs": 1677,
      "Ġlake": 1678,
      "Ġpa": 1679,
      "Ġthinks": 1680,
      "cket": 1681,
      "Maybe": 1682,
      "ope": 1683,
      "Ġpaint": 1684,
      "Ġsec": 1685,
      "thy": 1686,
      "Ġsister": 1687,
      "ually": 1688,
      "Ġparty": 1689,
      "Ġquiet": 1690,
      "ises": 1691,
      "Ġmust": 1692,
      "cle": 1693,
      "ĠJim": 1694,
      "Ġrace": 1695,
      "avy": 1696,
      "Ġmoney": 1697,
      "Ġwear": 1698,
      "sw": 1699,
      "Ġworried": 1700,
      "ased": 1701,
      "up": 1702,
      "Ġansw": 1703,
      "unch": 1704,
      "Ġslowly": 1705,
      "Ġpot": 1706,
      "Ġcolorful": 1707,
      "eces": 1708,
      "Ġgrate": 1709,
      "Ġfaster": 1710,
      "Ġow": 1711,
      "Ġbran": 1712,
      "Ġpieces": 1713,
      "Ġdance": 1714,
      "Ġbott": 1715,
      "Ġwelc": 1716,
      "Ġbroke": 1717,
      "Ġcup": 1718,
      "Ġsuch": 1719,
      "Ġgrateful": 1720,
      "ix": 1721,
      "Ġgif": 1722,
      "Ġbigger": 1723,
      "Ġtrain": 1724,
      "ze": 1725,
      "ph": 1726,
      "Ġsnack": 1727,
      "fort": 1728,
      "Ġcho": 1729,
      "Ġreach": 1730,
      "Ġblank": 1731,
      "ĠAll": 1732,
      "Ġpro": 1733,
      "Ġmonster": 1734,
      "Ġplant": 1735,
      "Ġjoin": 1736,
      "Ġriver": 1737,
      "less": 1738,
      "Ġblack": 1739,
      "Ġcandy": 1740,
      "ire": 1741,
      "Ġwin": 1742,
      "Ġblanket": 1743,
      "Ġscream": 1744,
      "Ġele": 1745,
      "Ġmagical": 1746,
      "Ġtreasure": 1747,
      "ear": 1748,
      "Ġprincess": 1749,
      "Ġve": 1750,
      "Ġsmart": 1751,
      "Ġbike": 1752,
      "Ġdangerous": 1753,
      "Ġsign": 1754,
      "Ġdragon": 1755,
      "Ġacross": 1756,
      "Ġmonkey": 1757,
      "Sure": 1758,
      "Ġmost": 1759,
      "Ġeverywhere": 1760,
      "ĠDaddy": 1761,
      "Ġhelping": 1762,
      "Ġbar": 1763,
      "Ġnap": 1764,
      "outh": 1765,
      "Ġfarmer": 1766,
      "Ġem": 1767,
      "Ġmouth": 1768,
      "set": 1769,
      "Why": 1770,
      "Ġdisapp": 1771,
      "Ġwords": 1772,
      "ipped": 1773,
      "Ġje": 1774,
      "Ġstre": 1775,
      "ored": 1776,
      "Hi": 1777,
      "eared": 1778,
      "ming": 1779,
      "Ġstepped": 1780,
      "Ġthrew": 1781,
      "Ġheavy": 1782,
      "Ġtower": 1783,
      "Ġdolls": 1784,
      "Ġpass": 1785,
      "Ġbite": 1786,
      "de": 1787,
      "Ġbowl": 1788,
      "Ġdirty": 1789,
      "Ġsame": 1790,
      "Ġtwins": 1791,
      "Ġcrying": 1792,
      "Ġbee": 1793,
      "Ġspr": 1794,
      "ident": 1795,
      "ere": 1796,
      "ĠMolly": 1797,
      "Ġdoctor": 1798,
      "Ġacc": 1799,
      "Ġbelieve": 1800,
      "Ġwouldn": 1801,
      "Ġbath": 1802,
      "Ġheal": 1803,
      "ĠFl": 1804,
      "Ġhig": 1805,
      "chool": 1806,
      "bble": 1807,
      "Ġcarrot": 1808,
      "Ġclosed": 1809,
      "Ġheart": 1810,
      "Ġstuck": 1811,
      "Mia": 1812,
      "cked": 1813,
      "Ġcour": 1814,
      "Ġbuck": 1815,
      "Ġfruit": 1816,
      "Ġmin": 1817,
      "Ġatt": 1818,
      "Ġteac": 1819,
      "ĠMr": 1820,
      "Ġschool": 1821,
      "Ġbrown": 1822,
      "Ġhoped": 1823,
      "asket": 1824,
      "ĠJill": 1825,
      "iting": 1826,
      "Ġbasket": 1827,
      "Ġsuddenly": 1828,
      "Ġfeels": 1829,
      "Ġmix": 1830,
      "Ġchair": 1831,
      "Ġeating": 1832,
      "Ġtown": 1833,
      "Ġclapped": 1834,
      "Ġcourse": 1835,
      "Ġcray": 1836,
      "Ġcoll": 1837,
      "Ġgentle": 1838,
      "Ġfairy": 1839,
      "pping": 1840,
      "Ġpack": 1841,
      "Ġbutt": 1842,
      "ventually": 1843,
      "Ġstand": 1844,
      "ier": 1845,
      "Ġdrove": 1846,
      "ors": 1847,
      "Ġpushed": 1848,
      "br": 1849,
      "issed": 1850,
      "Ġwelcome": 1851,
      "ts": 1852,
      "Ġswings": 1853,
      "Ġhigher": 1854,
      "Ġwithout": 1855,
      "Ġneigh": 1856,
      "Ġtoday": 1857,
      "Ġpocket": 1858,
      "orrow": 1859,
      "Ġhit": 1860,
      "Ġteacher": 1861,
      "Ġneighb": 1862,
      "ord": 1863,
      "Ġpers": 1864,
      "Ġsmo": 1865,
      "Ġpiece": 1866,
      "ourn": 1867,
      "Ġgames": 1868,
      "Ġcheered": 1869,
      "ract": 1870,
      "Ġwings": 1871,
      "Ġforget": 1872,
      "Ġben": 1873,
      "Ġexplained": 1874,
      "Ġlonger": 1875,
      "Ġjourn": 1876,
      "Ġyard": 1877,
      "Ġfree": 1878,
      "Finally": 1879,
      "ible": 1880,
      "Ġaccident": 1881,
      "Ġcorn": 1882,
      "ead": 1883,
      "Ġdry": 1884,
      "Ġalong": 1885,
      "ho": 1886,
      "umb": 1887,
      "cy": 1888,
      "ment": 1889,
      "ĠMary": 1890,
      "Ġnoises": 1891,
      "itting": 1892,
      "Ġsang": 1893,
      "Ġinst": 1894,
      "Ġneck": 1895,
      "Ġhappen": 1896,
      "Ġlate": 1897,
      "Ġthrow": 1898,
      "Ġhugs": 1899,
      "Ġyoung": 1900,
      "Lila": 1901,
      "Ġturns": 1902,
      "phant": 1903,
      "Ġstories": 1904,
      "vel": 1905,
      "Ġshoes": 1906,
      "Ġlon": 1907,
      "Ġmiss": 1908,
      "Ġadventures": 1909,
      "Ġsinging": 1910,
      "Ġtrou": 1911,
      "Ġwell": 1912,
      "Ġsea": 1913,
      "Ġupset": 1914,
      "Ġlunch": 1915,
      "Ġapple": 1916,
      "Ġlonely": 1917,
      "Ġkey": 1918,
      "bby": 1919,
      "ches": 1920,
      "Ġelephant": 1921,
      "oun": 1922,
      "Ġstreet": 1923,
      "Ġsecret": 1924,
      "Ġplac": 1925,
      "Ġbelong": 1926,
      "Ġdist": 1927,
      "Ġmine": 1928,
      "Ġtom": 1929,
      "Ġwish": 1930,
      "Ġfence": 1931,
      "ountain": 1932,
      "Ġmat": 1933,
      "ek": 1934,
      "Ġshap": 1935,
      "Ġshook": 1936,
      "Ġexploring": 1937,
      "Ġmoved": 1938,
      "Ġyear": 1939,
      "Ġpurp": 1940,
      "Ġnearby": 1941,
      "Ġsoup": 1942,
      "aughty": 1943,
      "Ġnaughty": 1944,
      "Ġstar": 1945,
      "Ġwise": 1946,
      "Ġshop": 1947,
      "Ġbring": 1948,
      "Ġstars": 1949,
      "ĠGrandma": 1950,
      "Ġowl": 1951,
      "Ġjar": 1952,
      "fused": 1953,
      "bow": 1954,
      "Do": 1955,
      "ocked": 1956,
      "Ġinv": 1957,
      "Ġexp": 1958,
      "Ġcaught": 1959,
      "yard": 1960,
      "Ġwhe": 1961,
      "Ġsu": 1962,
      "ward": 1963,
      "Ġseemed": 1964,
      "Ġbackyard": 1965,
      "Ġph": 1966,
      "Ġes": 1967,
      "ail": 1968,
      "Ġrelie": 1969,
      "Ġdropped": 1970,
      "Ġrocks": 1971,
      "ĠEmma": 1972,
      "aughter": 1973,
      "llo": 1974,
      "Ġdrink": 1975,
      "Ġ3": 1976,
      "ush": 1977,
      "Ġbucket": 1978,
      "adow": 1979,
      "Ġpurple": 1980,
      "Ġswam": 1981,
      "Ġdes": 1982,
      "Ġca": 1983,
      "ces": 1984,
      "Ġresp": 1985,
      "Ġfarm": 1986,
      "Ġtaking": 1987,
      "Ġorange": 1988,
      "Ġthough": 1989,
      "ions": 1990,
      "And": 1991,
      "Ġmail": 1992,
      "Ġshapes": 1993,
      "Ġpast": 1994,
      "Ġcow": 1995,
      "Ġstu": 1996,
      "col": 1997,
      "Ġwoke": 1998,
      "ĠThank": 1999,
      "Ġbench": 2000,
      "ung": 2001,
      "sy": 2002,
      "Ġaf": 2003,
      "Ġsounds": 2004,
      "ity": 2005,
      "Ġfit": 2006,
      "Ġwondered": 2007,
      "Ġbusy": 2008,
      "Ġtiny": 2009,
      "Ġob": 2010,
      "Ġsitting": 2011,
      "Ġrainbow": 2012,
      "Ġnose": 2013,
      "Ġnest": 2014,
      "ese": 2015,
      "Ġdaughter": 2016,
      "Ġmark": 2017,
      "Ġtakes": 2018,
      "Ġmad": 2019,
      "fish": 2020,
      "to": 2021,
      "weet": 2022,
      "Ġkite": 2023,
      "Ġcou": 2024,
      "read": 2025,
      "ĠO": 2026,
      "Ġnothing": 2027,
      "Ġholding": 2028,
      "Ġjuice": 2029,
      "Ġcomes": 2030,
      "Ġarms": 2031,
      "thday": 2032,
      "Ġpig": 2033,
      "Ġcoat": 2034,
      "ĠFluffy": 2035,
      "og": 2036,
      "ining": 2037,
      "Ġcir": 2038,
      "ĠInside": 2039,
      "Ġbranch": 2040,
      "raid": 2041,
      "Ġrelieved": 2042,
      "pper": 2043,
      "Ġafraid": 2044,
      "cing": 2045,
      "ose": 2046,
      "idge": 2047
    },
    "merges": [
      [
        "h",
        "e"
      ],
      [
        "Ġ",
        "t"
      ],
      [
        "Ġ",
        "a"
      ],
      [
        "Ġ",
        "s"
      ],
      [
        "Ġ",
        "w"
      ],
      [
        "n",
        "d"
      ],
      [
        "Ġt",
        "he"
      ],
      [
        "e",
        "d"
      ],
      [
        "Ġa",
        "nd"
      ],
      [
        "Ġt",
        "o"
      ],
      [
        "Ġ",
        "b"
      ],
      [
        "i",
        "n"
      ],
      [
        "Ġ",
        "h"
      ],
      [
        "Ġw",
        "a"
      ],
      [
        "r",
        "e"
      ],
      [
        "o",
        "u"
      ],
      [
        "Ġ",
        "f"
      ],
      [
        "i",
        "t"
      ],
      [
        "Ġ",
        "l"
      ],
      [
        "Ġ",
        "c"
      ],
      [
        "Ġ",
        "d"
      ],
      [
        "e",
        "r"
      ],
      [
        "Ġ",
        "he"
      ],
      [
        "Ġ",
        "m"
      ],
      [
        "Ġ",
        "p"
      ],
      [
        "Ġwa",
        "s"
      ],
      [
        "o",
        "m"
      ],
      [
        "Ġ",
        "T"
      ],
      [
        "Ġ",
        "o"
      ],
      [
        "a",
        "y"
      ],
      [
        "a",
        "r"
      ],
      [
        "i",
        "s"
      ],
      [
        "in",
        "g"
      ],
      [
        "i",
        "l"
      ],
      [
        "Ġ",
        "g"
      ],
      [
        "i",
        "d"
      ],
      [
        "a",
        "t"
      ],
      [
        "e",
        "n"
      ],
      [
        "Ġ",
        "n"
      ],
      [
        "Ġs",
        "a"
      ],
      [
        "Ġh",
        "a"
      ],
      [
        "Ġ",
        "S"
      ],
      [
        "ĠT",
        "he"
      ],
      [
        "a",
        "n"
      ],
      [
        "i",
        "m"
      ],
      [
        "o",
        "r"
      ],
      [
        "o",
        "n"
      ],
      [
        "Ġ",
        "it"
      ],
      [
        "Ġt",
        "h"
      ],
      [
        "l",
        "l"
      ],
      [
        "l",
        "e"
      ],
      [
        "Ġ",
        "H"
      ],
      [
        "Ġhe",
        "r"
      ],
      [
        "o",
        "t"
      ],
      [
        "e",
        "t"
      ],
      [
        "i",
        "r"
      ],
      [
        "ĠS",
        "he"
      ],
      [
        "e",
        "s"
      ],
      [
        "ĠH",
        "e"
      ],
      [
        "Ġ",
        "in"
      ],
      [
        "v",
        "er"
      ],
      [
        "u",
        "t"
      ],
      [
        "o",
        "w"
      ],
      [
        "ĠThe",
        "y"
      ],
      [
        "c",
        "k"
      ],
      [
        "Ġ",
        "e"
      ],
      [
        "Ġ",
        "u"
      ],
      [
        "l",
        "d"
      ],
      [
        "Ġ",
        "y"
      ],
      [
        "o",
        "o"
      ],
      [
        "Ġsa",
        "id"
      ],
      [
        "i",
        "g"
      ],
      [
        "il",
        "y"
      ],
      [
        "Ġ",
        "\""
      ],
      [
        "Ġ",
        "r"
      ],
      [
        "Ġb",
        "e"
      ],
      [
        "a",
        "m"
      ],
      [
        "Ġs",
        "t"
      ],
      [
        "Ġ",
        "I"
      ],
      [
        "c",
        "e"
      ],
      [
        "k",
        "e"
      ],
      [
        "Ġs",
        "he"
      ],
      [
        "v",
        "e"
      ],
      [
        "p",
        "p"
      ],
      [
        "it",
        "h"
      ],
      [
        "Ġw",
        "ith"
      ],
      [
        "L",
        "ily"
      ],
      [
        "O",
        "n"
      ],
      [
        "Ġo",
        "n"
      ],
      [
        "Ġy",
        "ou"
      ],
      [
        "Ġo",
        "f"
      ],
      [
        "k",
        "ed"
      ],
      [
        "r",
        "i"
      ],
      [
        "Ġs",
        "o"
      ],
      [
        "n",
        "t"
      ],
      [
        "Ġh",
        "is"
      ],
      [
        "Ġp",
        "l"
      ],
      [
        "a",
        "d"
      ],
      [
        "ver",
        "y"
      ],
      [
        "Ġd",
        "ay"
      ],
      [
        "Ġth",
        "at"
      ],
      [
        "Ġu",
        "p"
      ],
      [
        "Ġpl",
        "ay"
      ],
      [
        "Ġha",
        "d"
      ],
      [
        "s",
        "t"
      ],
      [
        "Ġthe",
        "y"
      ],
      [
        "Ġw",
        "e"
      ],
      [
        "Ġ",
        "Lily"
      ],
      [
        "Ġm",
        "om"
      ],
      [
        "Ġf",
        "or"
      ],
      [
        "Ġ",
        "B"
      ],
      [
        "e",
        "l"
      ],
      [
        "u",
        "n"
      ],
      [
        "ou",
        "ld"
      ],
      [
        "'",
        "s"
      ],
      [
        "m",
        "y"
      ],
      [
        "T",
        "he"
      ],
      [
        "Ġl",
        "i"
      ],
      [
        "c",
        "h"
      ],
      [
        "en",
        "t"
      ],
      [
        "Ġha",
        "pp"
      ],
      [
        "Ġwa",
        "nt"
      ],
      [
        "it",
        "t"
      ],
      [
        "Ġs",
        "h"
      ],
      [
        "ou",
        "t"
      ],
      [
        "he",
        "r"
      ],
      [
        "Ġd",
        "o"
      ],
      [
        "l",
        "y"
      ],
      [
        "Ġn",
        "ot"
      ],
      [
        "om",
        "e"
      ],
      [
        "s",
        "e"
      ],
      [
        "Ġ",
        "very"
      ],
      [
        "ou",
        "nd"
      ],
      [
        "e",
        "nd"
      ],
      [
        "a",
        "ll"
      ],
      [
        "Ġw",
        "h"
      ],
      [
        "im",
        "e"
      ],
      [
        "itt",
        "le"
      ],
      [
        "Ġ",
        "k"
      ],
      [
        "Ġt",
        "ime"
      ],
      [
        "Ġl",
        "ittle"
      ],
      [
        "a",
        "l"
      ],
      [
        "Ġthe",
        "re"
      ],
      [
        "Ġn",
        "e"
      ],
      [
        "h",
        "t"
      ],
      [
        "Ġ",
        "M"
      ],
      [
        "Ġ",
        "re"
      ],
      [
        "Ġhapp",
        "y"
      ],
      [
        "Ġs",
        "m"
      ],
      [
        "Ġb",
        "ig"
      ],
      [
        "Ġ",
        "is"
      ],
      [
        "Ġ",
        "Ċ"
      ],
      [
        "ĠI",
        "t"
      ],
      [
        "Ġb",
        "ut"
      ],
      [
        "a",
        "ck"
      ],
      [
        "Ġa",
        "n"
      ],
      [
        "Ġsa",
        "w"
      ],
      [
        "ri",
        "end"
      ],
      [
        "Ġf",
        "riend"
      ],
      [
        ".",
        "\""
      ],
      [
        "Ġa",
        "s"
      ],
      [
        "r",
        "y"
      ],
      [
        "r",
        "a"
      ],
      [
        "On",
        "e"
      ],
      [
        "id",
        "e"
      ],
      [
        "a",
        "ke"
      ],
      [
        "'",
        "t"
      ],
      [
        "!",
        "\""
      ],
      [
        "u",
        "g"
      ],
      [
        "Ġl",
        "oo"
      ],
      [
        "v",
        "ed"
      ],
      [
        "t",
        "er"
      ],
      [
        "Ġwe",
        "re"
      ],
      [
        "o",
        "re"
      ],
      [
        "On",
        "ce"
      ],
      [
        "Ġl",
        "o"
      ],
      [
        "e",
        "c"
      ],
      [
        "Ġh",
        "im"
      ],
      [
        "Ġto",
        "o"
      ],
      [
        "Ġg",
        "o"
      ],
      [
        "Ġb",
        "o"
      ],
      [
        "Ġs",
        "e"
      ],
      [
        "ir",
        "l"
      ],
      [
        "Ġa",
        "re"
      ],
      [
        "Ġ",
        "j"
      ],
      [
        "ĠT",
        "im"
      ],
      [
        "ar",
        "d"
      ],
      [
        "Ġwant",
        "ed"
      ],
      [
        "il",
        "l"
      ],
      [
        "Ġg",
        "irl"
      ],
      [
        "Ġup",
        "on"
      ],
      [
        "Ġ",
        "out"
      ],
      [
        "Ġthe",
        "m"
      ],
      [
        "Ġa",
        "t"
      ],
      [
        "u",
        "r"
      ],
      [
        "i",
        "nd"
      ],
      [
        "Ġthe",
        "ir"
      ],
      [
        "f",
        "u"
      ],
      [
        "Ġs",
        "p"
      ],
      [
        "w",
        "ay"
      ],
      [
        "Ġ",
        "A"
      ],
      [
        "Ġsm",
        "il"
      ],
      [
        "Ġd",
        "id"
      ],
      [
        "Ġc",
        "ould"
      ],
      [
        "he",
        "n"
      ],
      [
        "Ġha",
        "ve"
      ],
      [
        "a",
        "in"
      ],
      [
        "ar",
        "t"
      ],
      [
        "Ġe",
        "x"
      ],
      [
        "he",
        "d"
      ],
      [
        "r",
        "om"
      ],
      [
        "Ġw",
        "ent"
      ],
      [
        "Ġa",
        "r"
      ],
      [
        "i",
        "c"
      ],
      [
        "Ġc",
        "an"
      ],
      [
        "Ġ",
        "J"
      ],
      [
        "l",
        "p"
      ],
      [
        "fu",
        "l"
      ],
      [
        "ĠB",
        "en"
      ],
      [
        "oo",
        "d"
      ],
      [
        "?",
        "\""
      ],
      [
        "h",
        "ing"
      ],
      [
        "Ġfriend",
        "s"
      ],
      [
        "Ġn",
        "am"
      ],
      [
        "ig",
        "ht"
      ],
      [
        "Ġa",
        "ll"
      ],
      [
        "Ġhe",
        "lp"
      ],
      [
        "Ġk",
        "n"
      ],
      [
        "u",
        "m"
      ],
      [
        "on",
        "e"
      ],
      [
        "ar",
        "k"
      ],
      [
        "Ġb",
        "ack"
      ],
      [
        "Ġs",
        "ay"
      ],
      [
        "Y",
        "ou"
      ],
      [
        "Ġf",
        "un"
      ],
      [
        "Ġc",
        "l"
      ],
      [
        "ĠT",
        "om"
      ],
      [
        "a",
        "re"
      ],
      [
        "Ġn",
        "o"
      ],
      [
        "Ġl",
        "e"
      ],
      [
        "o",
        "p"
      ],
      [
        "Ġsmil",
        "ed"
      ],
      [
        "Ġs",
        "c"
      ],
      [
        "Ġnam",
        "ed"
      ],
      [
        "Ġa",
        "l"
      ],
      [
        "ou",
        "g"
      ],
      [
        "Ġlo",
        "ved"
      ],
      [
        "s",
        "ide"
      ],
      [
        "el",
        "t"
      ],
      [
        "Ġ",
        "One"
      ],
      [
        "Ġm",
        "an"
      ],
      [
        "Ġas",
        "ked"
      ],
      [
        "i",
        "ck"
      ],
      [
        "Ġto",
        "y"
      ],
      [
        "Ġli",
        "ke"
      ],
      [
        "Ġf",
        "e"
      ],
      [
        "Ġf",
        "elt"
      ],
      [
        "Ġloo",
        "ked"
      ],
      [
        "Ġs",
        "ome"
      ],
      [
        "Ġar",
        "ound"
      ],
      [
        "Ġse",
        "e"
      ],
      [
        "Ġm",
        "e"
      ],
      [
        "am",
        "e"
      ],
      [
        "om",
        "et"
      ],
      [
        "Ġ",
        "W"
      ],
      [
        "Ġr",
        "o"
      ],
      [
        "Ġb",
        "r"
      ],
      [
        "u",
        "re"
      ],
      [
        "ĠTim",
        "my"
      ],
      [
        "Ġb",
        "ir"
      ],
      [
        "g",
        "et"
      ],
      [
        "i",
        "ce"
      ],
      [
        "Ġbo",
        "y"
      ],
      [
        "Ġw",
        "ould"
      ],
      [
        "Ġst",
        "art"
      ],
      [
        "on",
        "g"
      ],
      [
        "Ã",
        "¢"
      ],
      [
        "â",
        "Ĥ"
      ],
      [
        "âĤ",
        "¬"
      ],
      [
        "s",
        "s"
      ],
      [
        "Ġbir",
        "d"
      ],
      [
        "Ġs",
        "omet"
      ],
      [
        "Ġf",
        "a"
      ],
      [
        "d",
        "d"
      ],
      [
        "ing",
        "s"
      ],
      [
        "Ġa",
        "g"
      ],
      [
        "Ġw",
        "or"
      ],
      [
        "Ġwh",
        "at"
      ],
      [
        "ad",
        "e"
      ],
      [
        "Ġm",
        "ake"
      ],
      [
        "k",
        "ing"
      ],
      [
        ",",
        "\""
      ],
      [
        "i",
        "e"
      ],
      [
        "ĠB",
        "ut"
      ],
      [
        "ow",
        "n"
      ],
      [
        "Ġt",
        "re"
      ],
      [
        "Ġr",
        "an"
      ],
      [
        "get",
        "her"
      ],
      [
        "Ġ",
        "You"
      ],
      [
        "Ġa",
        "way"
      ],
      [
        "a",
        "g"
      ],
      [
        "ar",
        "ed"
      ],
      [
        "Ġsay",
        "s"
      ],
      [
        "Ġstart",
        "ed"
      ],
      [
        "ou",
        "d"
      ],
      [
        "i",
        "f"
      ],
      [
        "Ġm",
        "ade"
      ],
      [
        "Ġc",
        "ar"
      ],
      [
        "Ġsomet",
        "hing"
      ],
      [
        "Ġto",
        "gether"
      ],
      [
        "it",
        "ed"
      ],
      [
        "t",
        "her"
      ],
      [
        "Ġp",
        "ark"
      ],
      [
        "Ġc",
        "o"
      ],
      [
        "Ġsa",
        "d"
      ],
      [
        "Ġo",
        "ther"
      ],
      [
        "Ġne",
        "w"
      ],
      [
        "Ġex",
        "c"
      ],
      [
        "Ġp",
        "ut"
      ],
      [
        "Ġf",
        "rom"
      ],
      [
        "Ġp",
        "r"
      ],
      [
        "e",
        "ll"
      ],
      [
        "Ġ",
        "L"
      ],
      [
        "Ġl",
        "a"
      ],
      [
        "Ġh",
        "ug"
      ],
      [
        "b",
        "le"
      ],
      [
        "Ġm",
        "u"
      ],
      [
        "oo",
        "k"
      ],
      [
        "a",
        "ch"
      ],
      [
        "Ġag",
        "ain"
      ],
      [
        "Ġh",
        "ome"
      ],
      [
        "Ġw",
        "hen"
      ],
      [
        "Ġg",
        "ood"
      ],
      [
        "e",
        "p"
      ],
      [
        "h",
        "at"
      ],
      [
        "Ġwh",
        "o"
      ],
      [
        "es",
        "t"
      ],
      [
        "ri",
        "ed"
      ],
      [
        "Ġf",
        "ound"
      ],
      [
        "Ġf",
        "l"
      ],
      [
        "Ġthe",
        "n"
      ],
      [
        "Ġc",
        "h"
      ],
      [
        "Ġd",
        "ec"
      ],
      [
        "pp",
        "ed"
      ],
      [
        "Ġwa",
        "l"
      ],
      [
        "a",
        "s"
      ],
      [
        "Ġg",
        "et"
      ],
      [
        "q",
        "u"
      ],
      [
        "Ġplay",
        "ing"
      ],
      [
        "oug",
        "ht"
      ],
      [
        "p",
        "l"
      ],
      [
        "Ġ",
        "E"
      ],
      [
        "all",
        "y"
      ],
      [
        "Ġs",
        "w"
      ],
      [
        "ou",
        "s"
      ],
      [
        "n",
        "n"
      ],
      [
        "Ġth",
        "ings"
      ],
      [
        "Ġexc",
        "ited"
      ],
      [
        "Ġli",
        "ked"
      ],
      [
        "Ġg",
        "ot"
      ],
      [
        "u",
        "ck"
      ],
      [
        "r",
        "o"
      ],
      [
        "id",
        "ed"
      ],
      [
        "Ġdec",
        "ided"
      ],
      [
        "Ġb",
        "l"
      ],
      [
        "a",
        "ve"
      ],
      [
        "Ġc",
        "ame"
      ],
      [
        "Ġe",
        "very"
      ],
      [
        "ar",
        "a"
      ],
      [
        "Ġ",
        "D"
      ],
      [
        "Ġyou",
        "r"
      ],
      [
        "ĠM",
        "om"
      ],
      [
        "a",
        "x"
      ],
      [
        "Ġ",
        "v"
      ],
      [
        "Ġsc",
        "ared"
      ],
      [
        "u",
        "st"
      ],
      [
        "Ġon",
        "e"
      ],
      [
        "Ġdo",
        "g"
      ],
      [
        "Ġd",
        "own"
      ],
      [
        "n",
        "y"
      ],
      [
        "ou",
        "se"
      ],
      [
        "Ġf",
        "ind"
      ],
      [
        "Ġc",
        "are"
      ],
      [
        "Ġbe",
        "c"
      ],
      [
        "is",
        "t"
      ],
      [
        "Ġth",
        "an"
      ],
      [
        "Ġfe",
        "el"
      ],
      [
        "a",
        "p"
      ],
      [
        "u",
        "e"
      ],
      [
        "u",
        "dd"
      ],
      [
        "nn",
        "a"
      ],
      [
        "Ġd",
        "ad"
      ],
      [
        "Ġa",
        "b"
      ],
      [
        "The",
        "y"
      ],
      [
        "Ġm",
        "y"
      ],
      [
        "Ġloo",
        "k"
      ],
      [
        "Ġ",
        "ke"
      ],
      [
        "ou",
        "r"
      ],
      [
        "Ġw",
        "ill"
      ],
      [
        "ar",
        "n"
      ],
      [
        "Ġg",
        "r"
      ],
      [
        "u",
        "s"
      ],
      [
        "nd",
        "er"
      ],
      [
        "Ġg",
        "ra"
      ],
      [
        "way",
        "s"
      ],
      [
        "es",
        "s"
      ],
      [
        "Ġdid",
        "n"
      ],
      [
        "Ġp",
        "o"
      ],
      [
        "f",
        "e"
      ],
      [
        "Ġal",
        "ways"
      ],
      [
        "Ġtoo",
        "k"
      ],
      [
        "Ġab",
        "out"
      ],
      [
        "an",
        "t"
      ],
      [
        "b",
        "b"
      ],
      [
        "Ġmom",
        "my"
      ],
      [
        "Ġl",
        "ot"
      ],
      [
        "Ġkn",
        "e"
      ],
      [
        "Ġtoy",
        "s"
      ],
      [
        "er",
        "s"
      ],
      [
        "is",
        "e"
      ],
      [
        "Ġout",
        "side"
      ],
      [
        "it",
        "e"
      ],
      [
        "Ġtre",
        "e"
      ],
      [
        "Ġth",
        "ought"
      ],
      [
        "Ġb",
        "all"
      ],
      [
        "Ġ",
        "F"
      ],
      [
        "Ġm",
        "ore"
      ],
      [
        "ec",
        "i"
      ],
      [
        "ĠS",
        "am"
      ],
      [
        "en",
        "ed"
      ],
      [
        "c",
        "hed"
      ],
      [
        "Ġt",
        "a"
      ],
      [
        "Ġo",
        "ld"
      ],
      [
        "Ġh",
        "o"
      ],
      [
        "Ġle",
        "arn"
      ],
      [
        "re",
        "t"
      ],
      [
        "Ġin",
        "t"
      ],
      [
        "g",
        "ed"
      ],
      [
        "Ġkn",
        "ow"
      ],
      [
        "Ġla",
        "ug"
      ],
      [
        "Ġt",
        "ake"
      ],
      [
        "eci",
        "al"
      ],
      [
        "Ġsp",
        "ecial"
      ],
      [
        "Ġs",
        "or"
      ],
      [
        "udd",
        "en"
      ],
      [
        "Ġc",
        "at"
      ],
      [
        "Ġkne",
        "w"
      ],
      [
        "ĠM",
        "ax"
      ],
      [
        "i",
        "ve"
      ],
      [
        "Ġp",
        "e"
      ],
      [
        "i",
        "a"
      ],
      [
        "udden",
        "ly"
      ],
      [
        "Ġan",
        "y"
      ],
      [
        "Ġt",
        "r"
      ],
      [
        "f",
        "ter"
      ],
      [
        "Ġh",
        "ow"
      ],
      [
        "m",
        "a"
      ],
      [
        "Ġsh",
        "ow"
      ],
      [
        "in",
        "k"
      ],
      [
        "Ġsor",
        "ry"
      ],
      [
        "Ġt",
        "w"
      ],
      [
        "B",
        "ut"
      ],
      [
        "Ġmu",
        "ch"
      ],
      [
        "a",
        "u"
      ],
      [
        "is",
        "h"
      ],
      [
        "Ġr",
        "un"
      ],
      [
        "a",
        "nd"
      ],
      [
        "Ġha",
        "nd"
      ],
      [
        "Ġs",
        "l"
      ],
      [
        "v",
        "en"
      ],
      [
        "Ġh",
        "ouse"
      ],
      [
        "Ġo",
        "r"
      ],
      [
        "Ġo",
        "p"
      ],
      [
        "Ġs",
        "k"
      ],
      [
        "Ġm",
        "o"
      ],
      [
        "Ġcl",
        "o"
      ],
      [
        "Ġs",
        "un"
      ],
      [
        "Ġint",
        "o"
      ],
      [
        "Ġt",
        "ried"
      ],
      [
        "Ġin",
        "side"
      ],
      [
        "at",
        "e"
      ],
      [
        "Ġto",
        "ld"
      ],
      [
        "Ġwa",
        "ter"
      ],
      [
        "Ġ",
        "en"
      ],
      [
        "Ġth",
        "is"
      ],
      [
        "an",
        "k"
      ],
      [
        "Ġ",
        "if"
      ],
      [
        "um",
        "p"
      ],
      [
        "Ġpr",
        "oud"
      ],
      [
        "Ġ",
        "qu"
      ],
      [
        "Ġo",
        "ver"
      ],
      [
        "Ġcould",
        "n"
      ],
      [
        "T",
        "om"
      ],
      [
        "d",
        "y"
      ],
      [
        "Ġg",
        "ave"
      ],
      [
        "Ġhe",
        "ard"
      ],
      [
        "ĠS",
        "ara"
      ],
      [
        "Ġne",
        "ver"
      ],
      [
        "b",
        "y"
      ],
      [
        "Ġe",
        "ach"
      ],
      [
        "a",
        "ce"
      ],
      [
        "Ġro",
        "om"
      ],
      [
        "t",
        "y"
      ],
      [
        "ĠE",
        "very"
      ],
      [
        "Ġex",
        "pl"
      ],
      [
        "Ġe",
        "at"
      ],
      [
        "ot",
        "her"
      ],
      [
        "ĠW",
        "e"
      ],
      [
        "au",
        "se"
      ],
      [
        "Ġp",
        "ick"
      ],
      [
        "i",
        "on"
      ],
      [
        "Ġp",
        "ret"
      ],
      [
        "ĠA",
        "nna"
      ],
      [
        "Ġplay",
        "ed"
      ],
      [
        "M",
        "om"
      ],
      [
        "g",
        "e"
      ],
      [
        "et",
        "ter"
      ],
      [
        "Ġj",
        "ust"
      ],
      [
        "a",
        "k"
      ],
      [
        "Ġhug",
        "ged"
      ],
      [
        "Ġg",
        "re"
      ],
      [
        "he",
        "re"
      ],
      [
        "Ġof",
        "f"
      ],
      [
        "Ġc",
        "om"
      ],
      [
        "Ġwa",
        "t"
      ],
      [
        "ot",
        "h"
      ],
      [
        "Ġbo",
        "x"
      ],
      [
        "Ġn",
        "ice"
      ],
      [
        "'",
        "m"
      ],
      [
        "Ġbec",
        "ause"
      ],
      [
        "Ġst",
        "r"
      ],
      [
        "Ġne",
        "ed"
      ],
      [
        "il",
        "e"
      ],
      [
        "Ġman",
        "y"
      ],
      [
        "Ġf",
        "o"
      ],
      [
        "u",
        "c"
      ],
      [
        "Ġj",
        "o"
      ],
      [
        "Ġbe",
        "ar"
      ],
      [
        "Ġsm",
        "all"
      ],
      [
        "i",
        "z"
      ],
      [
        "Ġb",
        "u"
      ],
      [
        "Ġl",
        "ong"
      ],
      [
        "v",
        "ing"
      ],
      [
        "in",
        "e"
      ],
      [
        "g",
        "ry"
      ],
      [
        "or",
        "t"
      ],
      [
        "im",
        "al"
      ],
      [
        "Ġan",
        "imal"
      ],
      [
        "Ġs",
        "n"
      ],
      [
        "oug",
        "h"
      ],
      [
        "Ġt",
        "ry"
      ],
      [
        "Ġu",
        "nt"
      ],
      [
        "il",
        "d"
      ],
      [
        "s",
        "el"
      ],
      [
        "ur",
        "t"
      ],
      [
        "Ġunt",
        "il"
      ],
      [
        "ĠJ",
        "ack"
      ],
      [
        "s",
        "ed"
      ],
      [
        "Ġk",
        "ind"
      ],
      [
        "Ġlearn",
        "ed"
      ],
      [
        "Ġ",
        "im"
      ],
      [
        "Ġlo",
        "ve"
      ],
      [
        "Ġb",
        "etter"
      ],
      [
        "f",
        "t"
      ],
      [
        "Ġfl",
        "ow"
      ],
      [
        "Ġc",
        "all"
      ],
      [
        "ĠJ",
        "o"
      ],
      [
        "H",
        "e"
      ],
      [
        "Ġd",
        "on"
      ],
      [
        "Ġe",
        "nd"
      ],
      [
        "Ġa",
        "d"
      ],
      [
        "u",
        "ll"
      ],
      [
        "Ġb",
        "est"
      ],
      [
        "v",
        "ent"
      ],
      [
        "Y",
        "es"
      ],
      [
        "ar",
        "s"
      ],
      [
        "ur",
        "p"
      ],
      [
        "ad",
        "y"
      ],
      [
        "e",
        "m"
      ],
      [
        "re",
        "am"
      ],
      [
        "a",
        "ut"
      ],
      [
        "ur",
        "n"
      ],
      [
        "Ġc",
        "le"
      ],
      [
        "ĠM",
        "ia"
      ],
      [
        "ĠA",
        "nd"
      ],
      [
        "v",
        "es"
      ],
      [
        "Å",
        "ĵ"
      ],
      [
        "ard",
        "en"
      ],
      [
        "Ġ",
        "C"
      ],
      [
        "Ġg",
        "arden"
      ],
      [
        "Ġfa",
        "st"
      ],
      [
        "b",
        "er"
      ],
      [
        "Ġcare",
        "ful"
      ],
      [
        "Ġbe",
        "aut"
      ],
      [
        "ll",
        "y"
      ],
      [
        "T",
        "h"
      ],
      [
        "Ġe",
        "ven"
      ],
      [
        "p",
        "t"
      ],
      [
        "Ġb",
        "ra"
      ],
      [
        "i",
        "es"
      ],
      [
        "Ġthan",
        "ked"
      ],
      [
        "ĠS",
        "o"
      ],
      [
        "Ġf",
        "i"
      ],
      [
        "Ġc",
        "he"
      ],
      [
        "Ġlaug",
        "hed"
      ],
      [
        "Ġsk",
        "y"
      ],
      [
        "Ġb",
        "y"
      ],
      [
        "I",
        "t"
      ],
      [
        "ĠH",
        "er"
      ],
      [
        "Ġj",
        "ump"
      ],
      [
        "Ġg",
        "l"
      ],
      [
        "a",
        "se"
      ],
      [
        "Ġt",
        "e"
      ],
      [
        "Ġl",
        "oud"
      ],
      [
        "sel",
        "f"
      ],
      [
        "in",
        "y"
      ],
      [
        "Ġwa",
        "y"
      ],
      [
        "w",
        "n"
      ],
      [
        "Ġbeaut",
        "i"
      ],
      [
        "Ġc",
        "ome"
      ],
      [
        "le",
        "w"
      ],
      [
        "Ġl",
        "ist"
      ],
      [
        "Ġbeauti",
        "ful"
      ],
      [
        "Ġw",
        "o"
      ],
      [
        "Ġh",
        "ard"
      ],
      [
        "Ġlot",
        "s"
      ],
      [
        "Ġr",
        "a"
      ],
      [
        "Ġst",
        "ill"
      ],
      [
        "Ġf",
        "am"
      ],
      [
        "Ġanimal",
        "s"
      ],
      [
        "Ġ",
        "Ã¢"
      ],
      [
        "Ġh",
        "urt"
      ],
      [
        "Ġu",
        "nder"
      ],
      [
        "ĠThe",
        "n"
      ],
      [
        "ec",
        "t"
      ],
      [
        "Ġst",
        "ay"
      ],
      [
        "n",
        "ing"
      ],
      [
        "Ġl",
        "et"
      ],
      [
        "c",
        "t"
      ],
      [
        "Ġb",
        "oth"
      ],
      [
        "Ġc",
        "u"
      ],
      [
        "ĠH",
        "is"
      ],
      [
        "he",
        "s"
      ],
      [
        "b",
        "e"
      ],
      [
        "Ġsa",
        "fe"
      ],
      [
        "ĠF",
        "rom"
      ],
      [
        "oo",
        "l"
      ],
      [
        "re",
        "e"
      ],
      [
        "Ġco",
        "l"
      ],
      [
        "Ġtw",
        "o"
      ],
      [
        "Ġb",
        "ad"
      ],
      [
        "Ġim",
        "p"
      ],
      [
        "op",
        "le"
      ],
      [
        "Ġb",
        "ook"
      ],
      [
        "Ġre",
        "m"
      ],
      [
        "an",
        "e"
      ],
      [
        "Ġli",
        "ved"
      ],
      [
        "k",
        "ay"
      ],
      [
        "o",
        "ck"
      ],
      [
        "uc",
        "y"
      ],
      [
        "Ġwal",
        "ked"
      ],
      [
        "T",
        "im"
      ],
      [
        "a",
        "st"
      ],
      [
        "urp",
        "r"
      ],
      [
        "Ġbra",
        "ve"
      ],
      [
        "Ġsh",
        "ould"
      ],
      [
        "Ġit",
        "s"
      ],
      [
        "o",
        "b"
      ],
      [
        "is",
        "hed"
      ],
      [
        "Ġs",
        "urpr"
      ],
      [
        "Ġan",
        "gry"
      ],
      [
        "Ġfam",
        "ily"
      ],
      [
        "re",
        "ss"
      ],
      [
        "ig",
        "h"
      ],
      [
        "W",
        "hen"
      ],
      [
        "Ġpe",
        "ople"
      ],
      [
        "Ġf",
        "lew"
      ],
      [
        "Ġcall",
        "ed"
      ],
      [
        "N",
        "o"
      ],
      [
        "Ġr",
        "ed"
      ],
      [
        "Ġst",
        "or"
      ],
      [
        "i",
        "p"
      ],
      [
        "Ġf",
        "in"
      ],
      [
        "Ġso",
        "on"
      ],
      [
        "h",
        "n"
      ],
      [
        "L",
        "et"
      ],
      [
        "l",
        "ed"
      ],
      [
        "Ġke",
        "pt"
      ],
      [
        "Ġf",
        "ore"
      ],
      [
        "f",
        "ore"
      ],
      [
        "Ġd",
        "an"
      ],
      [
        "Ġsh",
        "are"
      ],
      [
        "Ġf",
        "ly"
      ],
      [
        "x",
        "t"
      ],
      [
        "is",
        "ed"
      ],
      [
        "dd",
        "ed"
      ],
      [
        "Ġp",
        "ic"
      ],
      [
        "âĤ¬",
        "â"
      ],
      [
        "Ġdo",
        "or"
      ],
      [
        "Ġgo",
        "ing"
      ],
      [
        "Ġ",
        "P"
      ],
      [
        "ĠW",
        "hen"
      ],
      [
        "Ġpret",
        "ty"
      ],
      [
        "Ġke",
        "ep"
      ],
      [
        "Ġcle",
        "an"
      ],
      [
        "Ġro",
        "ck"
      ],
      [
        "Ġn",
        "ow"
      ],
      [
        "Ġd",
        "ra"
      ],
      [
        "Ġad",
        "vent"
      ],
      [
        "ar",
        "y"
      ],
      [
        "um",
        "my"
      ],
      [
        "Ġno",
        "ise"
      ],
      [
        "Ġop",
        "ened"
      ],
      [
        "Ġsh",
        "iny"
      ],
      [
        "ag",
        "e"
      ],
      [
        "Ġexpl",
        "ore"
      ],
      [
        "Ġw",
        "ind"
      ],
      [
        "Ġdo",
        "ll"
      ],
      [
        "Ġc",
        "on"
      ],
      [
        "Ġc",
        "ry"
      ],
      [
        "Ġ",
        "ide"
      ],
      [
        "Ġbe",
        "fore"
      ],
      [
        "i",
        "ed"
      ],
      [
        "il",
        "ly"
      ],
      [
        "B",
        "en"
      ],
      [
        "Ġre",
        "al"
      ],
      [
        "Ġst",
        "o"
      ],
      [
        "s",
        "o"
      ],
      [
        "W",
        "hat"
      ],
      [
        "Ġgr",
        "ound"
      ],
      [
        "Ġal",
        "so"
      ],
      [
        "le",
        "s"
      ],
      [
        "Ġt",
        "urn"
      ],
      [
        "Ħ",
        "¢"
      ],
      [
        "âĤ¬â",
        "Ħ¢"
      ],
      [
        "Ġe",
        "y"
      ],
      [
        "T",
        "hat"
      ],
      [
        "Ġf",
        "ar"
      ],
      [
        "Ġide",
        "a"
      ],
      [
        "Ġf",
        "r"
      ],
      [
        "o",
        "on"
      ],
      [
        "Ġno",
        "dded"
      ],
      [
        "Ġcol",
        "or"
      ],
      [
        "Ġwa",
        "r"
      ],
      [
        "o",
        "y"
      ],
      [
        "Ġfeel",
        "ing"
      ],
      [
        "Ġpick",
        "ed"
      ],
      [
        "Ġu",
        "n"
      ],
      [
        "im",
        "b"
      ],
      [
        "t",
        "h"
      ],
      [
        "Ġwal",
        "king"
      ],
      [
        "ĠL",
        "ucy"
      ],
      [
        "Ġne",
        "xt"
      ],
      [
        "t",
        "hing"
      ],
      [
        "t",
        "ure"
      ],
      [
        "ĠD",
        "ad"
      ],
      [
        "Ġcl",
        "imb"
      ],
      [
        "Ġha",
        "s"
      ],
      [
        "u",
        "ch"
      ],
      [
        "Ġm",
        "a"
      ],
      [
        "Ġth",
        "r"
      ],
      [
        "Ġwh",
        "ile"
      ],
      [
        "e",
        "et"
      ],
      [
        "Ġb",
        "ed"
      ],
      [
        "Ġadvent",
        "ure"
      ],
      [
        "Ġsmil",
        "e"
      ],
      [
        "k",
        "es"
      ],
      [
        "ay",
        "be"
      ],
      [
        "Th",
        "ank"
      ],
      [
        "ic",
        "ed"
      ],
      [
        "g",
        "er"
      ],
      [
        "i",
        "ous"
      ],
      [
        "Ġbe",
        "ing"
      ],
      [
        "Ġ",
        "G"
      ],
      [
        "Ġd",
        "if"
      ],
      [
        "Ġw",
        "r"
      ],
      [
        "Ġclo",
        "s"
      ],
      [
        "Ġf",
        "ood"
      ],
      [
        "j",
        "oy"
      ],
      [
        "t",
        "ed"
      ],
      [
        "Ġg",
        "ive"
      ],
      [
        "Ġpic",
        "ture"
      ],
      [
        "Ġth",
        "ink"
      ],
      [
        "ĠS",
        "p"
      ],
      [
        "Ġloo",
        "king"
      ],
      [
        "Ġd",
        "el"
      ],
      [
        "f",
        "f"
      ],
      [
        "a",
        "c"
      ],
      [
        "Ġwa",
        "it"
      ],
      [
        "Ġtr",
        "uck"
      ],
      [
        "ug",
        "ht"
      ],
      [
        "Ġey",
        "es"
      ],
      [
        "Ġto",
        "w"
      ],
      [
        "t",
        "ing"
      ],
      [
        "Ġre",
        "pl"
      ],
      [
        "Ġbr",
        "o"
      ],
      [
        "Ġsto",
        "pped"
      ],
      [
        "Ġlist",
        "en"
      ],
      [
        "Ġa",
        "fter"
      ],
      [
        "Ġb",
        "re"
      ],
      [
        "Ġo",
        "wn"
      ],
      [
        "Ġv",
        "o"
      ],
      [
        "Ġwal",
        "k"
      ],
      [
        "em",
        "ber"
      ],
      [
        "ĠS",
        "uddenly"
      ],
      [
        "Ġgre",
        "at"
      ],
      [
        "Ġwo",
        "nder"
      ],
      [
        "Ġhand",
        "s"
      ],
      [
        "S",
        "uddenly"
      ],
      [
        "Ġsh",
        "out"
      ],
      [
        "Ġhe",
        "ad"
      ],
      [
        "Ġen",
        "joy"
      ],
      [
        "Ġimp",
        "ort"
      ],
      [
        "Ġe",
        "ver"
      ],
      [
        "Ġflow",
        "ers"
      ],
      [
        "Ġfore",
        "st"
      ],
      [
        "bb",
        "it"
      ],
      [
        "Ġnot",
        "iced"
      ],
      [
        "Ġbl",
        "ue"
      ],
      [
        "iz",
        "ed"
      ],
      [
        "S",
        "he"
      ],
      [
        "Ġa",
        "pp"
      ],
      [
        "Ġqu",
        "ick"
      ],
      [
        "Ġd",
        "is"
      ],
      [
        "Ġne",
        "ar"
      ],
      [
        "ir",
        "st"
      ],
      [
        "Ġd",
        "e"
      ],
      [
        "Ġimport",
        "ant"
      ],
      [
        "a",
        "ble"
      ],
      [
        "Ġrem",
        "ember"
      ],
      [
        "Ġf",
        "ish"
      ],
      [
        "ll",
        "ow"
      ],
      [
        "Ġs",
        "ound"
      ],
      [
        "Ġsl",
        "ide"
      ],
      [
        "ma",
        "z"
      ],
      [
        "Ġu",
        "s"
      ],
      [
        "Ġrepl",
        "ied"
      ],
      [
        "Ġa",
        "c"
      ],
      [
        "Ġa",
        "maz"
      ],
      [
        "Ġwor",
        "k"
      ],
      [
        "le",
        "ase"
      ],
      [
        "Ġr",
        "ain"
      ],
      [
        "Ġwat",
        "ch"
      ],
      [
        "Ġshow",
        "ed"
      ],
      [
        "Ġra",
        "bbit"
      ],
      [
        "g",
        "an"
      ],
      [
        "Ġo",
        "kay"
      ],
      [
        "Ġt",
        "al"
      ],
      [
        "by",
        "e"
      ],
      [
        "fe",
        "re"
      ],
      [
        "bb",
        "ed"
      ],
      [
        "Ġdif",
        "fere"
      ],
      [
        "Ġas",
        "k"
      ],
      [
        "Ġme",
        "an"
      ],
      [
        "Ġr",
        "ight"
      ],
      [
        "Ġy",
        "e"
      ],
      [
        "d",
        "ay"
      ],
      [
        "Ġwat",
        "ched"
      ],
      [
        "Ġbr",
        "ight"
      ],
      [
        "Ġfo",
        "llow"
      ],
      [
        "S",
        "o"
      ],
      [
        "W",
        "e"
      ],
      [
        "ĠSp",
        "ot"
      ],
      [
        "Ġevery",
        "one"
      ],
      [
        "Ġstr",
        "ong"
      ],
      [
        "Ġs",
        "qu"
      ],
      [
        "Ġst",
        "ick"
      ],
      [
        "Ġbe",
        "en"
      ],
      [
        "Ġu",
        "se"
      ],
      [
        "Ġm",
        "or"
      ],
      [
        "Ġvo",
        "ice"
      ],
      [
        "Ġt",
        "ra"
      ],
      [
        "er",
        "ed"
      ],
      [
        "Ġquick",
        "ly"
      ],
      [
        "at",
        "h"
      ],
      [
        "Ġw",
        "here"
      ],
      [
        "Ġ",
        "our"
      ],
      [
        "Ġy",
        "ell"
      ],
      [
        "Ġ",
        "N"
      ],
      [
        "ĠMom",
        "my"
      ],
      [
        "A",
        "nna"
      ],
      [
        "Ġdiffere",
        "nt"
      ],
      [
        "ĠB",
        "ob"
      ],
      [
        "Ġch",
        "ild"
      ],
      [
        "Ġbo",
        "at"
      ],
      [
        "n",
        "g"
      ],
      [
        "Ġcu",
        "ri"
      ],
      [
        "Ġs",
        "ure"
      ],
      [
        "ĠS",
        "ue"
      ],
      [
        "Ġbec",
        "ame"
      ],
      [
        "Ġgood",
        "bye"
      ],
      [
        "Ġfa",
        "ce"
      ],
      [
        "Ġpl",
        "ace"
      ],
      [
        "an",
        "ge"
      ],
      [
        "Ġh",
        "op"
      ],
      [
        "Ġh",
        "igh"
      ],
      [
        "a",
        "ught"
      ],
      [
        "Ġa",
        "m"
      ],
      [
        "Ġ",
        "R"
      ],
      [
        "L",
        "ook"
      ],
      [
        "Ġst",
        "ore"
      ],
      [
        "Ġclos",
        "er"
      ],
      [
        "Ġwar",
        "m"
      ],
      [
        "Ġc",
        "r"
      ],
      [
        "Ġdo",
        "es"
      ],
      [
        "Ġd",
        "ress"
      ],
      [
        "un",
        "ny"
      ],
      [
        "S",
        "ara"
      ],
      [
        "Ġm",
        "ag"
      ],
      [
        "Ġcuri",
        "ous"
      ],
      [
        "il",
        "a"
      ],
      [
        "J",
        "o"
      ],
      [
        "Ġc",
        "ook"
      ],
      [
        "Ġfor",
        "g"
      ],
      [
        "Ġbe",
        "l"
      ],
      [
        "Ġt",
        "ell"
      ],
      [
        "Ġfa",
        "v"
      ],
      [
        "nd",
        "ma"
      ],
      [
        "a",
        "ss"
      ],
      [
        "ou",
        "nt"
      ],
      [
        "c",
        "o"
      ],
      [
        "Ġth",
        "ree"
      ],
      [
        "le",
        "ep"
      ],
      [
        "Ġn",
        "ight"
      ],
      [
        "Ġop",
        "en"
      ],
      [
        "Ġc",
        "ake"
      ],
      [
        "m",
        "ore"
      ],
      [
        "Ġany",
        "more"
      ],
      [
        "Ġhe",
        "re"
      ],
      [
        "Ġbl",
        "ock"
      ],
      [
        "Ġb",
        "us"
      ],
      [
        "Ġf",
        "irst"
      ],
      [
        "it",
        "c"
      ],
      [
        "Ġp",
        "ull"
      ],
      [
        "is",
        "s"
      ],
      [
        "a",
        "ched"
      ],
      [
        "H",
        "er"
      ],
      [
        "ir",
        "ed"
      ],
      [
        "Ġbut",
        "ter"
      ],
      [
        "Ġ",
        "z"
      ],
      [
        "im",
        "es"
      ],
      [
        "ĠT",
        "h"
      ],
      [
        "or",
        "n"
      ],
      [
        "Ġsw",
        "eet"
      ],
      [
        "Ġp",
        "ain"
      ],
      [
        "Ġgra",
        "bbed"
      ],
      [
        "Ġk",
        "id"
      ],
      [
        "Ġp",
        "u"
      ],
      [
        "C",
        "an"
      ],
      [
        "is",
        "y"
      ],
      [
        "Ġon",
        "ly"
      ],
      [
        "Ġm",
        "on"
      ],
      [
        "Ġle",
        "a"
      ],
      [
        "Ġfe",
        "ll"
      ],
      [
        "Ġb",
        "a"
      ],
      [
        "Ġr",
        "u"
      ],
      [
        "Ġcon",
        "t"
      ],
      [
        "Ġbird",
        "s"
      ],
      [
        "Ġjump",
        "ed"
      ],
      [
        "Ġgl",
        "ad"
      ],
      [
        "Ġb",
        "it"
      ],
      [
        "Ġsa",
        "nd"
      ],
      [
        "itc",
        "hen"
      ],
      [
        "Ġk",
        "itchen"
      ],
      [
        "Ġhelp",
        "ed"
      ],
      [
        "Ġse",
        "es"
      ],
      [
        "Ġp",
        "er"
      ],
      [
        "Ġfi",
        "re"
      ],
      [
        "Ġfl",
        "o"
      ],
      [
        "Ġst",
        "op"
      ],
      [
        "ĠSara",
        "h"
      ],
      [
        "Ġhapp",
        "ened"
      ],
      [
        "Ġs",
        "ing"
      ],
      [
        "Ġgra",
        "ss"
      ],
      [
        "Ġb",
        "unny"
      ],
      [
        "Ġshout",
        "ed"
      ],
      [
        "Ġstor",
        "y"
      ],
      [
        "Ġt",
        "ri"
      ],
      [
        "nt",
        "s"
      ],
      [
        "ĠL",
        "et"
      ],
      [
        "Ġd",
        "r"
      ],
      [
        "A",
        "fter"
      ],
      [
        "a",
        "ir"
      ],
      [
        "ĠJ",
        "ane"
      ],
      [
        "pp",
        "y"
      ],
      [
        "Ġre",
        "ached"
      ],
      [
        "Ġbe",
        "h"
      ],
      [
        "Ġreal",
        "ized"
      ],
      [
        "Ġy",
        "ummy"
      ],
      [
        "Ġbr",
        "other"
      ],
      [
        "ĠD",
        "o"
      ],
      [
        "Ġl",
        "ady"
      ],
      [
        "Ġm",
        "um"
      ],
      [
        "Ġha",
        "ving"
      ],
      [
        "Ġpr",
        "in"
      ],
      [
        "Ġfav",
        "or"
      ],
      [
        "ĠA",
        "s"
      ],
      [
        "in",
        "s"
      ],
      [
        "'",
        "re"
      ],
      [
        "Ġm",
        "ess"
      ],
      [
        "Ġfavor",
        "ite"
      ],
      [
        "Ġre",
        "st"
      ],
      [
        "Ġc",
        "re"
      ],
      [
        "Ġdra",
        "w"
      ],
      [
        "Ġthr",
        "ough"
      ],
      [
        "Ġat",
        "e"
      ],
      [
        "Ġg",
        "ame"
      ],
      [
        "Ġh",
        "at"
      ],
      [
        "Ġl",
        "ess"
      ],
      [
        "Ġunder",
        "st"
      ],
      [
        "ĠEvery",
        "one"
      ],
      [
        "ak",
        "es"
      ],
      [
        "Ġso",
        "ft"
      ],
      [
        "z",
        "y"
      ],
      [
        "Ġp",
        "are"
      ],
      [
        "Ġth",
        "ing"
      ],
      [
        "Ġre",
        "ally"
      ],
      [
        "at",
        "her"
      ],
      [
        "Ġre",
        "ady"
      ],
      [
        "Mom",
        "my"
      ],
      [
        "Ġbe",
        "gan"
      ],
      [
        "w",
        "here"
      ],
      [
        "Ġpret",
        "end"
      ],
      [
        "Ġwor",
        "ld"
      ],
      [
        "ĠC",
        "an"
      ],
      [
        "ĠJo",
        "e"
      ],
      [
        "ĠT",
        "hat"
      ],
      [
        "Ġlook",
        "s"
      ],
      [
        "Ġhim",
        "self"
      ],
      [
        "k",
        "en"
      ],
      [
        "fu",
        "lly"
      ],
      [
        "Ġmag",
        "ic"
      ],
      [
        "Ġp",
        "ap"
      ],
      [
        "Ġd",
        "one"
      ],
      [
        "Ġbutter",
        "f"
      ],
      [
        "Ġma",
        "king"
      ],
      [
        "Ġc",
        "ut"
      ],
      [
        "Ġcom",
        "ing"
      ],
      [
        "at",
        "er"
      ],
      [
        "Ġd",
        "uck"
      ],
      [
        "Ġpo",
        "nd"
      ],
      [
        "Ġkid",
        "s"
      ],
      [
        "Ġwa",
        "ved"
      ],
      [
        "Ġwh",
        "y"
      ],
      [
        "Ġt",
        "ired"
      ],
      [
        "Ġf",
        "ro"
      ],
      [
        "Ġp",
        "rom"
      ],
      [
        "Ġfi",
        "x"
      ],
      [
        "o",
        "lly"
      ],
      [
        "st",
        "er"
      ],
      [
        "Ġwor",
        "ry"
      ],
      [
        "Ġm",
        "ouse"
      ],
      [
        "Ġp",
        "art"
      ],
      [
        "Ġst",
        "e"
      ],
      [
        "Ġcar",
        "s"
      ],
      [
        "Ġdel",
        "ic"
      ],
      [
        "Ġflow",
        "er"
      ],
      [
        "Ġnam",
        "e"
      ],
      [
        "ig",
        "n"
      ],
      [
        "Ġf",
        "ill"
      ],
      [
        "a",
        "isy"
      ],
      [
        "W",
        "ow"
      ],
      [
        "Ġto",
        "uch"
      ],
      [
        "ed",
        "dy"
      ],
      [
        "Ġfun",
        "ny"
      ],
      [
        "Ġcat",
        "ch"
      ],
      [
        "s",
        "h"
      ],
      [
        "b",
        "o"
      ],
      [
        "Ġu",
        "sed"
      ],
      [
        "Ġse",
        "en"
      ],
      [
        "Ġha",
        "ir"
      ],
      [
        "ĠJo",
        "hn"
      ],
      [
        "Ġta",
        "st"
      ],
      [
        "i",
        "ent"
      ],
      [
        "Ġto",
        "p"
      ],
      [
        "re",
        "l"
      ],
      [
        "Ġpare",
        "nts"
      ],
      [
        "Ġan",
        "other"
      ],
      [
        "i",
        "ver"
      ],
      [
        "Ġho",
        "pped"
      ],
      [
        "u",
        "ff"
      ],
      [
        "Ġc",
        "ried"
      ],
      [
        "Ġho",
        "ld"
      ],
      [
        "one",
        "y"
      ],
      [
        "m",
        "er"
      ],
      [
        "Ġc",
        "ool"
      ],
      [
        "Ġdo",
        "ing"
      ],
      [
        "Ġblock",
        "s"
      ],
      [
        "\"",
        "."
      ],
      [
        "h",
        "y"
      ],
      [
        "Ġp",
        "us"
      ],
      [
        "Ġsurpr",
        "ise"
      ],
      [
        "Ġl",
        "ight"
      ],
      [
        "Ġgre",
        "en"
      ],
      [
        "A",
        "s"
      ],
      [
        "Ġthan",
        "k"
      ],
      [
        "Ġless",
        "on"
      ],
      [
        "Tim",
        "my"
      ],
      [
        "at",
        "ion"
      ],
      [
        "Ġre",
        "ad"
      ],
      [
        "Ġd",
        "in"
      ],
      [
        "Ġflo",
        "or"
      ],
      [
        "Ġf",
        "ull"
      ],
      [
        "Ġw",
        "ood"
      ],
      [
        "Ġg",
        "i"
      ],
      [
        "D",
        "on"
      ],
      [
        "Ġd",
        "ri"
      ],
      [
        "ard",
        "s"
      ],
      [
        "Ġtre",
        "es"
      ],
      [
        "Ġrun",
        "ning"
      ],
      [
        "Ġwor",
        "ked"
      ],
      [
        "Ġwind",
        "ow"
      ],
      [
        "Ġye",
        "ars"
      ],
      [
        "Ġc",
        "ra"
      ],
      [
        "Ġd",
        "ro"
      ],
      [
        "Ġd",
        "ark"
      ],
      [
        "Ġ",
        "-"
      ],
      [
        "Ġbeh",
        "ind"
      ],
      [
        "Ġsp",
        "ot"
      ],
      [
        "Ġsm",
        "ell"
      ],
      [
        "Ġli",
        "kes"
      ],
      [
        "Ġw",
        "ished"
      ],
      [
        "Ġpap",
        "er"
      ],
      [
        "u",
        "ed"
      ],
      [
        "Ġyell",
        "ow"
      ],
      [
        "and",
        "y"
      ],
      [
        "re",
        "n"
      ],
      [
        "Ġb",
        "ow"
      ],
      [
        "u",
        "l"
      ],
      [
        "Jo",
        "hn"
      ],
      [
        "Ġsw",
        "im"
      ],
      [
        "Ġhapp",
        "ily"
      ],
      [
        "Ġs",
        "at"
      ],
      [
        "Ġb",
        "ag"
      ],
      [
        "Ġsh",
        "o"
      ],
      [
        "S",
        "am"
      ],
      [
        "Ġs",
        "leep"
      ],
      [
        "ar",
        "ing"
      ],
      [
        "Ġsurpr",
        "ised"
      ],
      [
        "el",
        "y"
      ],
      [
        "Ġfro",
        "g"
      ],
      [
        "Ġbutterf",
        "ly"
      ],
      [
        "i",
        "ke"
      ],
      [
        "Ġsw",
        "ing"
      ],
      [
        "Ġs",
        "et"
      ],
      [
        "Ġcare",
        "fully"
      ],
      [
        "ĠI",
        "n"
      ],
      [
        "Ġsl",
        "ow"
      ],
      [
        "Ġremember",
        "ed"
      ],
      [
        "Ġlo",
        "st"
      ],
      [
        "Ġco",
        "ld"
      ],
      [
        "Ġhe",
        "ld"
      ],
      [
        "ell",
        "o"
      ],
      [
        "Ġho",
        "le"
      ],
      [
        "Ġ",
        "ice"
      ],
      [
        "H",
        "ello"
      ],
      [
        "Ġlaug",
        "h"
      ],
      [
        "re",
        "w"
      ],
      [
        "Ġneed",
        "ed"
      ],
      [
        "Ġbu",
        "y"
      ],
      [
        "Ġper",
        "f"
      ],
      [
        "Ġle",
        "ft"
      ],
      [
        "on",
        "s"
      ],
      [
        "Ġmo",
        "ve"
      ],
      [
        "c",
        "ess"
      ],
      [
        "re",
        "ed"
      ],
      [
        "Ġany",
        "thing"
      ],
      [
        "Ġenjoy",
        "ed"
      ],
      [
        "Ġt",
        "all"
      ],
      [
        "Ġd",
        "ream"
      ],
      [
        "Ġwr",
        "ong"
      ],
      [
        "Ġar",
        "ri"
      ],
      [
        "u",
        "it"
      ],
      [
        "Ġhe",
        "ar"
      ],
      [
        "in",
        "ally"
      ],
      [
        "Ġa",
        "ir"
      ],
      [
        "Ġfa",
        "ir"
      ],
      [
        "Ġfollow",
        "ed"
      ],
      [
        "ro",
        "ss"
      ],
      [
        "Ġe",
        "l"
      ],
      [
        "Ġbook",
        "s"
      ],
      [
        "Ġchild",
        "ren"
      ],
      [
        "Ġh",
        "un"
      ],
      [
        "Ġdelic",
        "ious"
      ],
      [
        "Ġta",
        "ble"
      ],
      [
        "Ġfin",
        "ished"
      ],
      [
        "Ġcont",
        "in"
      ],
      [
        "Ġfriend",
        "ly"
      ],
      [
        "Ġd",
        "ir"
      ],
      [
        "Ġh",
        "ot"
      ],
      [
        "Ġsn",
        "ow"
      ],
      [
        "Ġher",
        "self"
      ],
      [
        "d",
        "s"
      ],
      [
        "ĠA",
        "fter"
      ],
      [
        "l",
        "f"
      ],
      [
        "Ġh",
        "ill"
      ],
      [
        "en",
        "s"
      ],
      [
        "Ġunderst",
        "and"
      ],
      [
        "Ġp",
        "lease"
      ],
      [
        "Ġclo",
        "se"
      ],
      [
        "in",
        "ed"
      ],
      [
        "Ġh",
        "id"
      ],
      [
        "Ġarri",
        "ved"
      ],
      [
        "Ġc",
        "ast"
      ],
      [
        "Ġel",
        "se"
      ],
      [
        "Ġar",
        "m"
      ],
      [
        "Ġwonder",
        "ful"
      ],
      [
        "Ġba",
        "by"
      ],
      [
        "Ġm",
        "ight"
      ],
      [
        "Ġg",
        "ent"
      ],
      [
        "Ġt",
        "ight"
      ],
      [
        "s",
        "p"
      ],
      [
        "Ġforg",
        "ot"
      ],
      [
        "ie",
        "ld"
      ],
      [
        "ĠS",
        "ally"
      ],
      [
        "Ġb",
        "ug"
      ],
      [
        "Ġcolor",
        "s"
      ],
      [
        "Ġre",
        "l"
      ],
      [
        "Ġbu",
        "ild"
      ],
      [
        "ĠD",
        "aisy"
      ],
      [
        "Ġbro",
        "ken"
      ],
      [
        "Ġa",
        "ble"
      ],
      [
        "Ġg",
        "one"
      ],
      [
        "a",
        "v"
      ],
      [
        "ĠBen",
        "ny"
      ],
      [
        "n",
        "er"
      ],
      [
        "ĠN",
        "ow"
      ],
      [
        "ĠL",
        "ila"
      ],
      [
        "Ġy",
        "es"
      ],
      [
        "at",
        "ter"
      ],
      [
        "Ġwa",
        "ll"
      ],
      [
        "Ġs",
        "ong"
      ],
      [
        "The",
        "n"
      ],
      [
        "i",
        "ch"
      ],
      [
        "Ġfill",
        "ed"
      ],
      [
        "Ġsqu",
        "ir"
      ],
      [
        "Ġag",
        "reed"
      ],
      [
        "Ġsome",
        "one"
      ],
      [
        "J",
        "ack"
      ],
      [
        "Ġcontin",
        "ued"
      ],
      [
        "ro",
        "om"
      ],
      [
        "Ġcre",
        "at"
      ],
      [
        "as",
        "ure"
      ],
      [
        "'",
        "ll"
      ],
      [
        "Ġc",
        "ount"
      ],
      [
        "Ġwant",
        "s"
      ],
      [
        "ĠE",
        "m"
      ],
      [
        "Ġsquir",
        "rel"
      ],
      [
        "Ġp",
        "ink"
      ],
      [
        "Ġlea",
        "ves"
      ],
      [
        "as",
        "k"
      ],
      [
        "Ġen",
        "ough"
      ],
      [
        "e",
        "y"
      ],
      [
        "ĠThe",
        "re"
      ],
      [
        "ĠTom",
        "my"
      ],
      [
        "Ġli",
        "on"
      ],
      [
        "F",
        "rom"
      ],
      [
        "am",
        "a"
      ],
      [
        "e",
        "e"
      ],
      [
        "O",
        "K"
      ],
      [
        "Ġmor",
        "ning"
      ],
      [
        "Ġmom",
        "ent"
      ],
      [
        "Ġv",
        "is"
      ],
      [
        "Ġfin",
        "ally"
      ],
      [
        "Ġget",
        "ting"
      ],
      [
        "Ġstay",
        "ed"
      ],
      [
        "Ġcook",
        "ies"
      ],
      [
        "Ġbre",
        "ak"
      ],
      [
        "a",
        "pp"
      ],
      [
        "an",
        "ce"
      ],
      [
        "Ġpo",
        "in"
      ],
      [
        "Ġbe",
        "ach"
      ],
      [
        "Ġ",
        "K"
      ],
      [
        "Ġfe",
        "w"
      ],
      [
        "Ġf",
        "ight"
      ],
      [
        "ĠM",
        "aybe"
      ],
      [
        "Ġsc",
        "ary"
      ],
      [
        "Ġsomet",
        "imes"
      ],
      [
        "c",
        "ed"
      ],
      [
        "ri",
        "es"
      ],
      [
        "r",
        "ow"
      ],
      [
        "as",
        "h"
      ],
      [
        "r",
        "ed"
      ],
      [
        "Ġdin",
        "ner"
      ],
      [
        "Ġturn",
        "ed"
      ],
      [
        "Ġf",
        "all"
      ],
      [
        "Ġhun",
        "gry"
      ],
      [
        "g",
        "on"
      ],
      [
        "Ġm",
        "other"
      ],
      [
        "Ġgra",
        "ndma"
      ],
      [
        "Ġw",
        "et"
      ],
      [
        "Ġj",
        "u"
      ],
      [
        "ĠW",
        "hat"
      ],
      [
        "Ġamaz",
        "ing"
      ],
      [
        "Ġtry",
        "ing"
      ],
      [
        "Ġc",
        "ream"
      ],
      [
        "a",
        "pped"
      ],
      [
        "H",
        "is"
      ],
      [
        "Ġdad",
        "dy"
      ],
      [
        "Ġperf",
        "ect"
      ],
      [
        "Ġm",
        "akes"
      ],
      [
        "Ġp",
        "i"
      ],
      [
        "Ġother",
        "s"
      ],
      [
        "Ġcast",
        "le"
      ],
      [
        "A",
        "t"
      ],
      [
        "Ġclimb",
        "ed"
      ],
      [
        "ou",
        "p"
      ],
      [
        "ke",
        "y"
      ],
      [
        "ĠTh",
        "is"
      ],
      [
        "Th",
        "is"
      ],
      [
        "Ġpicture",
        "s"
      ],
      [
        "ic",
        "y"
      ],
      [
        "Ġcom",
        "p"
      ],
      [
        "am",
        "p"
      ],
      [
        "Ġm",
        "et"
      ],
      [
        "Ġtal",
        "k"
      ],
      [
        "Ġmu",
        "s"
      ],
      [
        "o",
        "om"
      ],
      [
        "Ġwh",
        "ite"
      ],
      [
        "Ġlist",
        "ened"
      ],
      [
        "Ġsmil",
        "es"
      ],
      [
        "m",
        "an"
      ],
      [
        "Ġf",
        "ur"
      ],
      [
        "or",
        "ing"
      ],
      [
        "Ġball",
        "oon"
      ],
      [
        "Ġcl",
        "ot"
      ],
      [
        "ĠG",
        "ra"
      ],
      [
        "Ġclot",
        "hes"
      ],
      [
        "Ġal",
        "one"
      ],
      [
        "ĠB",
        "illy"
      ],
      [
        "Ġpo",
        "l"
      ],
      [
        "l",
        "c"
      ],
      [
        "Ġta",
        "il"
      ],
      [
        "r",
        "ot"
      ],
      [
        "Ġjo",
        "y"
      ],
      [
        "at",
        "ed"
      ],
      [
        "Ġpu",
        "ppy"
      ],
      [
        "O",
        "h"
      ],
      [
        "Ġm",
        "ar"
      ],
      [
        "Ġsp",
        "l"
      ],
      [
        "en",
        "ce"
      ],
      [
        "Ġwas",
        "n"
      ],
      [
        "Ġbr",
        "ought"
      ],
      [
        "Ġde",
        "ep"
      ],
      [
        "Ġevery",
        "thing"
      ],
      [
        "Ġse",
        "ar"
      ],
      [
        "Ġstr",
        "ange"
      ],
      [
        "Ġp",
        "et"
      ],
      [
        "is",
        "ter"
      ],
      [
        "ct",
        "or"
      ],
      [
        "Ġsp",
        "ark"
      ],
      [
        "d",
        "er"
      ],
      [
        "Ġs",
        "it"
      ],
      [
        "Ġgr",
        "ow"
      ],
      [
        "Ġwood",
        "s"
      ],
      [
        "Ġpull",
        "ed"
      ],
      [
        "l",
        "ing"
      ],
      [
        "Ġsa",
        "il"
      ],
      [
        "ĠT",
        "o"
      ],
      [
        "ot",
        "t"
      ],
      [
        "Ġw",
        "on"
      ],
      [
        "Ġr",
        "ide"
      ],
      [
        "Ġpl",
        "an"
      ],
      [
        "et",
        "er"
      ],
      [
        "Ġask",
        "s"
      ],
      [
        "Ġfo",
        "x"
      ],
      [
        "Ġp",
        "ie"
      ],
      [
        "Ġtre",
        "at"
      ],
      [
        "Ġdan",
        "ger"
      ],
      [
        "uff",
        "y"
      ],
      [
        "Ġvis",
        "it"
      ],
      [
        "Ġro",
        "ll"
      ],
      [
        "ĠA",
        "my"
      ],
      [
        "o",
        "s"
      ],
      [
        "Ġle",
        "ave"
      ],
      [
        "m",
        "ed"
      ],
      [
        "ĠJ",
        "en"
      ],
      [
        "Ġp",
        "at"
      ],
      [
        "uck",
        "y"
      ],
      [
        "Ġmus",
        "ic"
      ],
      [
        "Ġamaz",
        "ed"
      ],
      [
        "Ġwa",
        "ited"
      ],
      [
        "Ġt",
        "eddy"
      ],
      [
        "Ġh",
        "ide"
      ],
      [
        "m",
        "e"
      ],
      [
        "an",
        "g"
      ],
      [
        "e",
        "ver"
      ],
      [
        "Ġtow",
        "ards"
      ],
      [
        "M",
        "ax"
      ],
      [
        "ow",
        "er"
      ],
      [
        "Ġf",
        "ield"
      ],
      [
        "Ġp",
        "re"
      ],
      [
        "Ġla",
        "nd"
      ],
      [
        "Ġfly",
        "ing"
      ],
      [
        "z",
        "z"
      ],
      [
        "Ġp",
        "en"
      ],
      [
        "Ġs",
        "illy"
      ],
      [
        "Ġsh",
        "ared"
      ],
      [
        "Ġown",
        "er"
      ],
      [
        "ain",
        "ed"
      ],
      [
        "Ġrun",
        "s"
      ],
      [
        "Ġcl",
        "oud"
      ],
      [
        "ap",
        "e"
      ],
      [
        "ug",
        "g"
      ],
      [
        "Ġli",
        "ving"
      ],
      [
        "Ġqu",
        "i"
      ],
      [
        "Ġjo",
        "b"
      ],
      [
        "am",
        "es"
      ],
      [
        "Ġprom",
        "ised"
      ],
      [
        "Ġbel",
        "ie"
      ],
      [
        "ig",
        "g"
      ],
      [
        "O",
        "kay"
      ],
      [
        "Ġg",
        "u"
      ],
      [
        "Ġmor",
        "al"
      ],
      [
        "Ġs",
        "ide"
      ],
      [
        "or",
        "m"
      ],
      [
        "o",
        "l"
      ],
      [
        "g",
        "s"
      ],
      [
        "Ġl",
        "ake"
      ],
      [
        "Ġp",
        "a"
      ],
      [
        "Ġthink",
        "s"
      ],
      [
        "ck",
        "et"
      ],
      [
        "M",
        "aybe"
      ],
      [
        "op",
        "e"
      ],
      [
        "Ġpain",
        "t"
      ],
      [
        "Ġs",
        "ec"
      ],
      [
        "th",
        "y"
      ],
      [
        "Ġs",
        "ister"
      ],
      [
        "u",
        "ally"
      ],
      [
        "Ġpart",
        "y"
      ],
      [
        "Ġqui",
        "et"
      ],
      [
        "is",
        "es"
      ],
      [
        "Ġmu",
        "st"
      ],
      [
        "c",
        "le"
      ],
      [
        "ĠJ",
        "im"
      ],
      [
        "Ġr",
        "ace"
      ],
      [
        "av",
        "y"
      ],
      [
        "Ġm",
        "oney"
      ],
      [
        "Ġwe",
        "ar"
      ],
      [
        "s",
        "w"
      ],
      [
        "Ġwor",
        "ried"
      ],
      [
        "as",
        "ed"
      ],
      [
        "u",
        "p"
      ],
      [
        "Ġan",
        "sw"
      ],
      [
        "un",
        "ch"
      ],
      [
        "Ġslow",
        "ly"
      ],
      [
        "Ġp",
        "ot"
      ],
      [
        "Ġcolor",
        "ful"
      ],
      [
        "ec",
        "es"
      ],
      [
        "Ġgr",
        "ate"
      ],
      [
        "Ġfast",
        "er"
      ],
      [
        "Ġo",
        "w"
      ],
      [
        "Ġbr",
        "an"
      ],
      [
        "Ġpi",
        "eces"
      ],
      [
        "Ġdan",
        "ce"
      ],
      [
        "Ġb",
        "ott"
      ],
      [
        "Ġwe",
        "lc"
      ],
      [
        "Ġbro",
        "ke"
      ],
      [
        "Ġcu",
        "p"
      ],
      [
        "Ġs",
        "uch"
      ],
      [
        "Ġgrate",
        "ful"
      ],
      [
        "i",
        "x"
      ],
      [
        "Ġg",
        "if"
      ],
      [
        "Ġbig",
        "ger"
      ],
      [
        "Ġtra",
        "in"
      ],
      [
        "z",
        "e"
      ],
      [
        "p",
        "h"
      ],
      [
        "Ġsn",
        "ack"
      ],
      [
        "f",
        "ort"
      ],
      [
        "Ġch",
        "o"
      ],
      [
        "Ġre",
        "ach"
      ],
      [
        "Ġbl",
        "ank"
      ],
      [
        "ĠA",
        "ll"
      ],
      [
        "Ġpr",
        "o"
      ],
      [
        "Ġmon",
        "ster"
      ],
      [
        "Ġpl",
        "ant"
      ],
      [
        "Ġjo",
        "in"
      ],
      [
        "Ġr",
        "iver"
      ],
      [
        "le",
        "ss"
      ],
      [
        "Ġbl",
        "ack"
      ],
      [
        "Ġc",
        "andy"
      ],
      [
        "i",
        "re"
      ],
      [
        "Ġw",
        "in"
      ],
      [
        "Ġblank",
        "et"
      ],
      [
        "Ġsc",
        "ream"
      ],
      [
        "Ġe",
        "le"
      ],
      [
        "Ġmagic",
        "al"
      ],
      [
        "Ġtre",
        "asure"
      ],
      [
        "e",
        "ar"
      ],
      [
        "Ġprin",
        "cess"
      ],
      [
        "Ġ",
        "ve"
      ],
      [
        "Ġsm",
        "art"
      ],
      [
        "Ġb",
        "ike"
      ],
      [
        "Ġdanger",
        "ous"
      ],
      [
        "Ġs",
        "ign"
      ],
      [
        "Ġdra",
        "gon"
      ],
      [
        "Ġac",
        "ross"
      ],
      [
        "Ġmon",
        "key"
      ],
      [
        "S",
        "ure"
      ],
      [
        "Ġmo",
        "st"
      ],
      [
        "Ġevery",
        "where"
      ],
      [
        "ĠDad",
        "dy"
      ],
      [
        "Ġhelp",
        "ing"
      ],
      [
        "Ġb",
        "ar"
      ],
      [
        "Ġn",
        "ap"
      ],
      [
        "out",
        "h"
      ],
      [
        "Ġfar",
        "mer"
      ],
      [
        "Ġe",
        "m"
      ],
      [
        "Ġm",
        "outh"
      ],
      [
        "s",
        "et"
      ],
      [
        "W",
        "hy"
      ],
      [
        "Ġdis",
        "app"
      ],
      [
        "Ġwor",
        "ds"
      ],
      [
        "i",
        "pped"
      ],
      [
        "Ġj",
        "e"
      ],
      [
        "Ġst",
        "re"
      ],
      [
        "or",
        "ed"
      ],
      [
        "H",
        "i"
      ],
      [
        "e",
        "ared"
      ],
      [
        "m",
        "ing"
      ],
      [
        "Ġste",
        "pped"
      ],
      [
        "Ġth",
        "rew"
      ],
      [
        "Ġhe",
        "avy"
      ],
      [
        "Ġtow",
        "er"
      ],
      [
        "Ġdoll",
        "s"
      ],
      [
        "Ġp",
        "ass"
      ],
      [
        "Ġb",
        "ite"
      ],
      [
        "d",
        "e"
      ],
      [
        "Ġbow",
        "l"
      ],
      [
        "Ġdir",
        "ty"
      ],
      [
        "Ġsa",
        "me"
      ],
      [
        "Ġtw",
        "ins"
      ],
      [
        "Ġcry",
        "ing"
      ],
      [
        "Ġbe",
        "e"
      ],
      [
        "Ġsp",
        "r"
      ],
      [
        "id",
        "ent"
      ],
      [
        "e",
        "re"
      ],
      [
        "ĠM",
        "olly"
      ],
      [
        "Ġdo",
        "ctor"
      ],
      [
        "Ġac",
        "c"
      ],
      [
        "Ġbelie",
        "ve"
      ],
      [
        "Ġwould",
        "n"
      ],
      [
        "Ġb",
        "ath"
      ],
      [
        "Ġhe",
        "al"
      ],
      [
        "ĠF",
        "l"
      ],
      [
        "Ġh",
        "ig"
      ],
      [
        "ch",
        "ool"
      ],
      [
        "b",
        "ble"
      ],
      [
        "Ġcar",
        "rot"
      ],
      [
        "Ġclo",
        "sed"
      ],
      [
        "Ġhe",
        "art"
      ],
      [
        "Ġst",
        "uck"
      ],
      [
        "M",
        "ia"
      ],
      [
        "ck",
        "ed"
      ],
      [
        "Ġc",
        "our"
      ],
      [
        "Ġb",
        "uck"
      ],
      [
        "Ġfr",
        "uit"
      ],
      [
        "Ġm",
        "in"
      ],
      [
        "Ġat",
        "t"
      ],
      [
        "Ġte",
        "ac"
      ],
      [
        "ĠM",
        "r"
      ],
      [
        "Ġs",
        "chool"
      ],
      [
        "Ġbr",
        "own"
      ],
      [
        "Ġhop",
        "ed"
      ],
      [
        "ask",
        "et"
      ],
      [
        "ĠJ",
        "ill"
      ],
      [
        "it",
        "ing"
      ],
      [
        "Ġb",
        "asket"
      ],
      [
        "Ġs",
        "uddenly"
      ],
      [
        "Ġfeel",
        "s"
      ],
      [
        "Ġm",
        "ix"
      ],
      [
        "Ġch",
        "air"
      ],
      [
        "Ġeat",
        "ing"
      ],
      [
        "Ġto",
        "wn"
      ],
      [
        "Ġcl",
        "apped"
      ],
      [
        "Ġcour",
        "se"
      ],
      [
        "Ġcr",
        "ay"
      ],
      [
        "Ġco",
        "ll"
      ],
      [
        "Ġgent",
        "le"
      ],
      [
        "Ġfair",
        "y"
      ],
      [
        "pp",
        "ing"
      ],
      [
        "Ġp",
        "ack"
      ],
      [
        "Ġbut",
        "t"
      ],
      [
        "vent",
        "ually"
      ],
      [
        "Ġst",
        "and"
      ],
      [
        "i",
        "er"
      ],
      [
        "Ġdro",
        "ve"
      ],
      [
        "or",
        "s"
      ],
      [
        "Ġpus",
        "hed"
      ],
      [
        "b",
        "r"
      ],
      [
        "is",
        "sed"
      ],
      [
        "Ġwelc",
        "ome"
      ],
      [
        "t",
        "s"
      ],
      [
        "Ġsw",
        "ings"
      ],
      [
        "Ġhig",
        "her"
      ],
      [
        "Ġwith",
        "out"
      ],
      [
        "Ġne",
        "igh"
      ],
      [
        "Ġto",
        "day"
      ],
      [
        "Ġpo",
        "cket"
      ],
      [
        "or",
        "row"
      ],
      [
        "Ġh",
        "it"
      ],
      [
        "Ġteac",
        "her"
      ],
      [
        "Ġneigh",
        "b"
      ],
      [
        "or",
        "d"
      ],
      [
        "Ġp",
        "ers"
      ],
      [
        "Ġsm",
        "o"
      ],
      [
        "Ġpie",
        "ce"
      ],
      [
        "our",
        "n"
      ],
      [
        "Ġg",
        "ames"
      ],
      [
        "Ġche",
        "ered"
      ],
      [
        "ra",
        "ct"
      ],
      [
        "Ġw",
        "ings"
      ],
      [
        "Ġfor",
        "get"
      ],
      [
        "Ġb",
        "en"
      ],
      [
        "Ġexpl",
        "ained"
      ],
      [
        "Ġlong",
        "er"
      ],
      [
        "Ġj",
        "ourn"
      ],
      [
        "Ġy",
        "ard"
      ],
      [
        "Ġf",
        "ree"
      ],
      [
        "F",
        "inally"
      ],
      [
        "i",
        "ble"
      ],
      [
        "Ġacc",
        "ident"
      ],
      [
        "Ġc",
        "orn"
      ],
      [
        "e",
        "ad"
      ],
      [
        "Ġd",
        "ry"
      ],
      [
        "Ġal",
        "ong"
      ],
      [
        "h",
        "o"
      ],
      [
        "um",
        "b"
      ],
      [
        "c",
        "y"
      ],
      [
        "m",
        "ent"
      ],
      [
        "ĠM",
        "ary"
      ],
      [
        "Ġno",
        "ises"
      ],
      [
        "itt",
        "ing"
      ],
      [
        "Ġsa",
        "ng"
      ],
      [
        "Ġin",
        "st"
      ],
      [
        "Ġne",
        "ck"
      ],
      [
        "Ġhapp",
        "en"
      ],
      [
        "Ġl",
        "ate"
      ],
      [
        "Ġthr",
        "ow"
      ],
      [
        "Ġhug",
        "s"
      ],
      [
        "Ġyou",
        "ng"
      ],
      [
        "L",
        "ila"
      ],
      [
        "Ġturn",
        "s"
      ],
      [
        "ph",
        "ant"
      ],
      [
        "Ġstor",
        "ies"
      ],
      [
        "ve",
        "l"
      ],
      [
        "Ġsho",
        "es"
      ],
      [
        "Ġl",
        "on"
      ],
      [
        "Ġm",
        "iss"
      ],
      [
        "Ġadventure",
        "s"
      ],
      [
        "Ġsing",
        "ing"
      ],
      [
        "Ġtr",
        "ou"
      ],
      [
        "Ġwe",
        "ll"
      ],
      [
        "Ġse",
        "a"
      ],
      [
        "Ġup",
        "set"
      ],
      [
        "Ġl",
        "unch"
      ],
      [
        "Ġapp",
        "le"
      ],
      [
        "Ġlon",
        "ely"
      ],
      [
        "Ġke",
        "y"
      ],
      [
        "bb",
        "y"
      ],
      [
        "c",
        "hes"
      ],
      [
        "Ġele",
        "phant"
      ],
      [
        "ou",
        "n"
      ],
      [
        "Ġstre",
        "et"
      ],
      [
        "Ġsec",
        "ret"
      ],
      [
        "Ġpl",
        "ac"
      ],
      [
        "Ġbel",
        "ong"
      ],
      [
        "Ġd",
        "ist"
      ],
      [
        "Ġm",
        "ine"
      ],
      [
        "Ġto",
        "m"
      ],
      [
        "Ġw",
        "ish"
      ],
      [
        "Ġf",
        "ence"
      ],
      [
        "ount",
        "ain"
      ],
      [
        "Ġm",
        "at"
      ],
      [
        "e",
        "k"
      ],
      [
        "Ġsh",
        "ap"
      ],
      [
        "Ġsh",
        "ook"
      ],
      [
        "Ġexpl",
        "oring"
      ],
      [
        "Ġmo",
        "ved"
      ],
      [
        "Ġye",
        "ar"
      ],
      [
        "Ġp",
        "urp"
      ],
      [
        "Ġnear",
        "by"
      ],
      [
        "Ġs",
        "oup"
      ],
      [
        "aught",
        "y"
      ],
      [
        "Ġn",
        "aughty"
      ],
      [
        "Ġst",
        "ar"
      ],
      [
        "Ġw",
        "ise"
      ],
      [
        "Ġsh",
        "op"
      ],
      [
        "Ġbr",
        "ing"
      ],
      [
        "Ġst",
        "ars"
      ],
      [
        "ĠGra",
        "ndma"
      ],
      [
        "Ġow",
        "l"
      ],
      [
        "Ġj",
        "ar"
      ],
      [
        "fu",
        "sed"
      ],
      [
        "b",
        "ow"
      ],
      [
        "D",
        "o"
      ],
      [
        "ock",
        "ed"
      ],
      [
        "Ġin",
        "v"
      ],
      [
        "Ġex",
        "p"
      ],
      [
        "Ġc",
        "aught"
      ],
      [
        "y",
        "ard"
      ],
      [
        "Ġw",
        "he"
      ],
      [
        "Ġs",
        "u"
      ],
      [
        "w",
        "ard"
      ],
      [
        "Ġsee",
        "med"
      ],
      [
        "Ġback",
        "yard"
      ],
      [
        "Ġp",
        "h"
      ],
      [
        "Ġ",
        "es"
      ],
      [
        "a",
        "il"
      ],
      [
        "Ġrel",
        "ie"
      ],
      [
        "Ġdro",
        "pped"
      ],
      [
        "Ġrock",
        "s"
      ],
      [
        "ĠEm",
        "ma"
      ],
      [
        "aught",
        "er"
      ],
      [
        "ll",
        "o"
      ],
      [
        "Ġdr",
        "ink"
      ],
      [
        "Ġ",
        "3"
      ],
      [
        "us",
        "h"
      ],
      [
        "Ġbuck",
        "et"
      ],
      [
        "ad",
        "ow"
      ],
      [
        "Ġpurp",
        "le"
      ],
      [
        "Ġsw",
        "am"
      ],
      [
        "Ġd",
        "es"
      ],
      [
        "Ġc",
        "a"
      ],
      [
        "c",
        "es"
      ],
      [
        "Ġre",
        "sp"
      ],
      [
        "Ġfar",
        "m"
      ],
      [
        "Ġta",
        "king"
      ],
      [
        "Ġor",
        "ange"
      ],
      [
        "Ġth",
        "ough"
      ],
      [
        "ion",
        "s"
      ],
      [
        "A",
        "nd"
      ],
      [
        "Ġma",
        "il"
      ],
      [
        "Ġshap",
        "es"
      ],
      [
        "Ġp",
        "ast"
      ],
      [
        "Ġc",
        "ow"
      ],
      [
        "Ġst",
        "u"
      ],
      [
        "co",
        "l"
      ],
      [
        "Ġwo",
        "ke"
      ],
      [
        "ĠTh",
        "ank"
      ],
      [
        "Ġben",
        "ch"
      ],
      [
        "un",
        "g"
      ],
      [
        "s",
        "y"
      ],
      [
        "Ġa",
        "f"
      ],
      [
        "Ġsound",
        "s"
      ],
      [
        "it",
        "y"
      ],
      [
        "Ġf",
        "it"
      ],
      [
        "Ġwonder",
        "ed"
      ],
      [
        "Ġbus",
        "y"
      ],
      [
        "Ġt",
        "iny"
      ],
      [
        "Ġo",
        "b"
      ],
      [
        "Ġs",
        "itting"
      ],
      [
        "Ġrain",
        "bow"
      ],
      [
        "Ġno",
        "se"
      ],
      [
        "Ġn",
        "est"
      ],
      [
        "es",
        "e"
      ],
      [
        "Ġd",
        "aughter"
      ],
      [
        "Ġm",
        "ark"
      ],
      [
        "Ġta",
        "kes"
      ],
      [
        "Ġm",
        "ad"
      ],
      [
        "f",
        "ish"
      ],
      [
        "t",
        "o"
      ],
      [
        "w",
        "eet"
      ],
      [
        "Ġk",
        "ite"
      ],
      [
        "Ġc",
        "ou"
      ],
      [
        "re",
        "ad"
      ],
      [
        "Ġ",
        "O"
      ],
      [
        "Ġnot",
        "hing"
      ],
      [
        "Ġhold",
        "ing"
      ],
      [
        "Ġju",
        "ice"
      ],
      [
        "Ġcom",
        "es"
      ],
      [
        "Ġarm",
        "s"
      ],
      [
        "th",
        "day"
      ],
      [
        "Ġp",
        "ig"
      ],
      [
        "Ġco",
        "at"
      ],
      [
        "ĠFl",
        "uffy"
      ],
      [
        "o",
        "g"
      ],
      [
        "in",
        "ing"
      ],
      [
        "Ġc",
        "ir"
      ],
      [
        "ĠIn",
        "side"
      ],
      [
        "Ġbran",
        "ch"
      ],
      [
        "ra",
        "id"
      ],
      [
        "Ġrelie",
        "ved"
      ],
      [
        "pp",
        "er"
      ],
      [
        "Ġaf",
        "raid"
      ],
      [
        "c",
        "ing"
      ],
      [
        "o",
        "se"
      ],
      [
        "id",
        "ge"
      ]
    ]
  }
}